{
  "<pad>": 0,
  "<unk>": 1,
  "<mask>": 2,
  "t": 3,
  "n": 4,
  "j": 5,
  "w": 6,
  "m": 7,
  "f": 8,
  "k": 9,
  "pl": 10,
  "Hr": 11,
  "r": 12,
  "nb": 13,
  "s": 14,
  "tj": 15,
  "nTr": 16,
  "jw": 17,
  "tA": 18,
  "a": 19,
  "rA": 20,
  "sn": 21,
  "raw": 22,
  "jm": 23,
  "nfr": 24,
  "jri": 25,
  "jr": 26,
  "y": 27,
  "kA": 28,
  "anx": 29,
  "pr": 30,
  "pA": 31,
  "Dd": 32,
  "aA": 33,
  "tw": 34,
  "A": 35,
  "Hm": 36,
  "nswt": 37,
  "xr": 38,
  "wr": 39,
  "zA": 40,
  "Htp": 41,
  "Di": 42,
  "mAa": 43,
  "du": 44,
  "jb": 45,
  "sw": 46,
  "tp": 47,
  "HA": 48,
  "p": 49,
  "Xr": 50,
  "pw": 51,
  "nn": 52,
  "mj": 53,
  "jmn": 54,
  "x": 55,
  "wt": 56,
  "Ax": 57,
  "xrw": 58,
  "mr": 59,
  "jn": 60,
  "wj": 61,
  "wsjr": 62,
  "H": 63,
  "pn": 64,
  "ppy": 65,
  "T": 66,
  "wa": 67,
  "rn": 68,
  "nA": 69,
  "D": 70,
  "Hw": 71,
  "xA": 72,
  "wn": 73,
  "jmAx": 74,
  "jt": 75,
  "ra": 76,
  "xnt": 77,
  "zXA": 78,
  "rDi": 79,
  "b": 80,
  "xpr": 81,
  "st": 82,
  "pri": 83,
  "tt": 84,
  "mn": 85,
  "mw": 86,
  "z": 87,
  "Hna": 88,
  "tn": 89,
  "yt": 90,
  "aHa": 91,
  "mH": 92,
  "xt": 93,
  "jni": 94,
  "rx": 95,
  "bA": 96,
  "Dr": 97,
  "Tn": 98,
  "nw": 99,
  "mri": 100,
  "wDA": 101,
  "sA": 102,
  "bw": 103,
  "jtn": 104,
  "pAy": 105,
  "bj": 106,
  "hrw": 107,
  "jy": 108,
  "wab": 109,
  "sr": 110,
  "rnp": 111,
  "wA": 112,
  "HD": 113,
  "S": 114,
  "jnk": 115,
  "smr": 116,
  "zp": 117,
  "mdw": 118,
  "v": 119,
  "wnn": 120,
  "msi": 121,
  "q": 122,
  "mAA": 123,
  "DA": 124,
  "X": 125,
  "tm": 126,
  "Tw": 127,
  "jwi": 128,
  "gs": 129,
  "d": 130,
  "xft": 131,
  "ptH": 132,
  "Dw": 133,
  "di": 134,
  "sxm": 135,
  "sHD": 136,
  "js": 137,
  "sDm": 138,
  "nD": 139,
  "wD": 140,
  "ms": 141,
  "pH": 142,
  "h": 143,
  "jA": 144,
  "wsr": 145,
  "jmi": 146,
  "dwA": 147,
  "wAD": 148,
  "aq": 149,
  "bAH": 150,
  "Sw": 151,
  "xtm": 152,
  "sp": 153,
  "sx": 154,
  "Xnw": 155,
  "jwn": 156,
  "nsw": 157,
  "TA": 158,
  "ky": 159,
  "nHH": 160,
  "mtw": 161,
  "mA": 162,
  "nxt": 163,
  "HqA": 164,
  "ttj": 165,
  "Dsr": 166,
  "kw": 167,
  "gmi": 168,
  "jnp": 169,
  "psD": 170,
  "bAk": 171,
  "mSa": 172,
  "dr": 173,
  "Apd": 174,
  "qd": 175,
  "Sma": 176,
  "xrp": 177,
  "nzw": 178,
  "Ha": 179,
  "Szp": 180,
  "jAb": 181,
  "mnx": 182,
  "xAs": 183,
  "nAy": 184,
  "HAb": 185,
  "DHw": 186,
  "sxr": 187,
  "mnw": 188,
  "Abd": 189,
  "rd": 190,
  "nbw": 191,
  "ns": 192,
  "rs": 193,
  "jH": 194,
  "zAb": 195,
  "wnjs": 196,
  "mrr": 197,
  "xai": 198,
  "As": 199,
  "pXr": 200,
  "bn": 201,
  "jrp": 202,
  "nm": 203,
  "snb": 204,
  "jx": 205,
  "jtj": 206,
  "wnm": 207,
  "km": 208,
  "nmt": 209,
  "wp": 210,
  "Smi": 211,
  "Sms": 212,
  "sbA": 213,
  "hAb": 214,
  "xsf": 215,
  "stp": 216,
  "Hn": 217,
  "Sps": 218,
  "aSA": 219,
  "wbn": 220,
  "jTi": 221,
  "Hmsi": 222,
  "nDm": 223,
  "spr": 224,
  "aHA": 225,
  "qrs": 226,
  "tAy": 227,
  "wAH": 228,
  "sStA": 229,
  "wpi": 230,
  "hAi": 231,
  "sSm": 232,
  "jrr": 233,
  "rdi": 234,
  "rw": 235,
  "dp": 236,
  "DD": 237,
  "HH": 238,
  "wAs": 239,
  "xm": 240,
  "Hnq": 241,
  "wjA": 242,
  "gr": 243,
  "grH": 244,
  "Aw": 245,
  "Ss": 246,
  "jp": 247,
  "Sa": 248,
  "Sm": 249,
  "qbH": 250,
  "swt": 251,
  "jz": 252,
  "sms": 253,
  "xwi": 254,
  "an": 255,
  "dj": 256,
  "sD": 257,
  "sk": 258,
  "mrH": 259,
  "hA": 260,
  "ma": 261,
  "sbk": 262,
  "pa": 263,
  "qn": 264,
  "snTr": 265,
  "TAw": 266,
  "aS": 267,
  "mDA": 268,
  "SA": 269,
  "Hz": 270,
  "yw": 271,
  "jAw": 272,
  "smn": 273,
  "Sdi": 274,
  "DAi": 275,
  "stS": 276,
  "Ds": 277,
  "i": 278,
  "fj": 279,
  "pwy": 280,
  "kAkAj": 281,
  "tjw": 282,
  "StA": 283,
  "jqr": 284,
  "wHm": 285,
  "wsx": 286,
  "md": 287,
  "DADA": 288,
  "xa": 289,
  "ab": 290,
  "ww": 291,
  "mrw": 292,
  "aD": 293,
  "nHm": 294,
  "smA": 295,
  "ptr": 296,
  "Sns": 297,
  "Hbs": 298,
  "Hwi": 299,
  "aH": 300,
  "Dba": 301,
  "mt": 302,
  "my": 303,
  "jrA": 304,
  "gbb": 305,
  "grg": 306,
  "sDr": 307,
  "jyi": 308,
  "Hsb": 309,
  "mAw": 310,
  "ja": 311,
  "xpS": 312,
  "pD": 313,
  "apr": 314,
  "wpw": 315,
  "bjA": 316,
  "stX": 317,
  "qmA": 318,
  "twt": 319,
  "fAi": 320,
  "kwj": 321,
  "Sn": 322,
  "snD": 323,
  "sd": 324,
  "Hs": 325,
  "tr": 326,
  "Srj": 327,
  "jmj": 328,
  "Hmw": 329,
  "jwf": 330,
  "Xn": 331,
  "sm": 332,
  "mnj": 333,
  "sanx": 334,
  "jtm": 335,
  "sTA": 336,
  "Snw": 337,
  "wDa": 338,
  "xn": 339,
  "Htr": 340,
  "Tzi": 341,
  "HkA": 342,
  "rwD": 343,
  "nbs": 344,
  "sX": 345,
  "Sna": 346,
  "Snj": 347,
  "jwa": 348,
  "sj": 349,
  "sSr": 350,
  "jti": 351,
  "qA": 352,
  "wHa": 353,
  "spd": 354,
  "swDA": 355,
  "zH": 356,
  "wnw": 357,
  "Ty": 358,
  "xAa": 359,
  "zmA": 360,
  "AbD": 361,
  "dmD": 362,
  "sHtp": 363,
  "swA": 364,
  "nj": 365,
  "qs": 366,
  "ar": 367,
  "qAi": 368,
  "XA": 369,
  "bnj": 370,
  "mD": 371,
  "jmm": 372,
  "Xnm": 373,
  "spA": 374,
  "wbA": 375,
  "dSr": 376,
  "wy": 377,
  "ty": 378,
  "dmj": 379,
  "jd": 380,
  "zAw": 381,
  "dd": 382,
  "gA": 383,
  "wAg": 384,
  "Dwj": 385,
  "jAwi": 386,
  "pf": 387,
  "zS": 388,
  "nh": 389,
  "Xkr": 390,
  "mdwi": 391,
  "DbA": 392,
  "Xrd": 393,
  "nHb": 394,
  "ds": 395,
  "g": 396,
  "mry": 397,
  "AH": 398,
  "Hnk": 399,
  "dbH": 400,
  "saH": 401,
  "Swi": 402,
  "jAr": 403,
  "jj": 404,
  "pAj": 405,
  "sSmi": 406,
  "pj": 407,
  "dA": 408,
  "war": 409,
  "hAy": 410,
  "wdn": 411,
  "jnb": 412,
  "nxn": 413,
  "xw": 414,
  "Hkn": 415,
  "jtr": 416,
  "bd": 417,
  "Hb": 418,
  "jSd": 419,
  "pzn": 420,
  "dbn": 421,
  "jnn": 422,
  "zxn": 423,
  "twy": 424,
  "rmT": 425,
  "smd": 426,
  "smj": 427,
  "wpl": 428,
  "Sb": 429,
  "jpw": 430,
  "Hai": 431,
  "ntf": 432,
  "sT": 433,
  "Hmt": 434,
  "wSb": 435,
  "ASr": 436,
  "Ab": 437,
  "rtH": 438,
  "Haa": 439,
  "Tz": 440,
  "jwA": 441,
  "sxA": 442,
  "Htm": 443,
  "snDm": 444,
  "tpl": 445,
  "smAa": 446,
  "aApp": 447,
  "wtj": 448,
  "Ay": 449,
  "sxpr": 450,
  "THn": 451,
  "Hnw": 452,
  "Sd": 453,
  "bjt": 454,
  "mk": 455,
  "wnx": 456,
  "ptrj": 457,
  "sxpi": 458,
  "xpi": 459,
  "DAr": 460,
  "aw": 461,
  "wdi": 462,
  "mnT": 463,
  "xnms": 464,
  "nDs": 465,
  "twA": 466,
  "zkr": 467,
  "mtr": 468,
  "ntk": 469,
  "jry": 470,
  "wDb": 471,
  "Spss": 472,
  "ad": 473,
  "DHwtj": 474,
  "Hrw": 475,
  "nDri": 476,
  "waH": 477,
  "Sr": 478,
  "stj": 479,
  "HAt": 480,
  "DfA": 481,
  "Hapj": 482,
  "bjn": 483,
  "SAa": 484,
  "Xrj": 485,
  "nxb": 486,
  "Hzi": 487,
  "xAw": 488,
  "mwt": 489,
  "sjA": 490,
  "ag": 491,
  "nt": 492,
  "AbDw": 493,
  "SsA": 494,
  "bjk": 495,
  "sAH": 496,
  "wxA": 497,
  "jnr": 498,
  "Hbnn": 499,
  "Ts": 500,
  "kj": 501,
  "njs": 502,
  "xnf": 503,
  "Ssp": 504,
  "TAi": 505,
  "hAw": 506,
  "tAj": 507,
  "Hsi": 508,
  "nms": 509,
  "HmA": 510,
  "Sf": 511,
  "psd": 512,
  "arf": 513,
  "gb": 514,
  "hn": 515,
  "mm": 516,
  "xnd": 517,
  "zj": 518,
  "jrt": 519,
  "sAx": 520,
  "am": 521,
  "fd": 522,
  "qAb": 523,
  "wTz": 524,
  "zbi": 525,
  "Dj": 526,
  "TAy": 527,
  "sjp": 528,
  "Hp": 529,
  "qAw": 530,
  "jwt": 531,
  "jzzj": 532,
  "rmn": 533,
  "sjn": 534,
  "sf": 535,
  "wai": 536,
  "Twt": 537,
  "jst": 538,
  "sS": 539,
  "aj": 540,
  "pAw": 541,
  "wAi": 542,
  "fnD": 543,
  "jTA": 544,
  "jrj": 545,
  "tnw": 546,
  "wrr": 547,
  "xntj": 548,
  "sntr": 549,
  "Hri": 550,
  "mrj": 551,
  "dm": 552,
  "hr": 553,
  "jmA": 554,
  "jrw": 555,
  "xru": 556,
  "bAs": 557,
  "jAd": 558,
  "sfT": 559,
  "sxt": 560,
  "tjt": 561,
  "ypl": 562,
  "Awi": 563,
  "msDr": 564,
  "hnw": 565,
  "jdb": 566,
  "mntk": 567,
  "msdm": 568,
  "prr": 569,
  "zAu": 570,
  "aAi": 571,
  "aqA": 572,
  "qsn": 573,
  "Ht": 574,
  "kk": 575,
  "nr": 576,
  "sDA": 577,
  "Sad": 578,
  "Sni": 579,
  "mHr": 580,
  "mki": 581,
  "mz": 582,
  "qb": 583,
  "rm": 584,
  "jpj": 585,
  "qaH": 586,
  "sbj": 587,
  "tAS": 588,
  "xns": 589,
  "Xni": 590,
  "arq": 591,
  "jai": 592,
  "jnt": 593,
  "jwr": 594,
  "mnH": 595,
  "sfx": 596,
  "bHd": 597,
  "sb": 598,
  "ski": 599,
  "sti": 600,
  "wrH": 601,
  "xfti": 602,
  "xftj": 603,
  "jaH": 604,
  "jji": 605,
  "jty": 606,
  "mHw": 607,
  "sjr": 608,
  "tkn": 609,
  "jab": 610,
  "pxA": 611,
  "ws": 612,
  "zn": 613,
  "nXnm": 614,
  "xnti": 615,
  "Hzz": 616,
  "rsj": 617,
  "skA": 618,
  "snf": 619,
  "trj": 620,
  "wat": 621,
  "xAi": 622,
  "ax": 623,
  "rS": 624,
  "sbx": 625,
  "xnm": 626,
  "HDi": 627,
  "jsT": 628,
  "pt": 629,
  "swrj": 630,
  "db": 631,
  "jAm": 632,
  "mjn": 633,
  "wdH": 634,
  "wxd": 635,
  "rmi": 636,
  "sHn": 637,
  "srf": 638,
  "Xnn": 639,
  "psi": 640,
  "saHa": 641,
  "wi": 642,
  "HT": 643,
  "jdw": 644,
  "jrm": 645,
  "Dam": 646,
  "mi": 647,
  "na": 648,
  "rkH": 649,
  "nsr": 650,
  "qnqn": 651,
  "sSp": 652,
  "tfn": 653,
  "wdu": 654,
  "wrD": 655,
  "Abw": 656,
  "HAm": 657,
  "baH": 658,
  "mAj": 659,
  "mnmn": 660,
  "nHs": 661,
  "nx": 662,
  "smnx": 663,
  "srwx": 664,
  "Trp": 665,
  "qnj": 666,
  "sSd": 667,
  "xmt": 668,
  "Sp": 669,
  "mDH": 670,
  "sDb": 671,
  "Tsi": 672,
  "bAq": 673,
  "nbj": 674,
  "rxt": 675,
  "sTi": 676,
  "swH": 677,
  "DrD": 678,
  "nHr": 679,
  "rf": 680,
  "sxp": 681,
  "xmn": 682,
  "zXAw": 683,
  "zw": 684,
  "Hmi": 685,
  "Hpt": 686,
  "HsA": 687,
  "Hts": 688,
  "aAm": 689,
  "awA": 690,
  "bnr": 691,
  "qr": 692,
  "stw": 693,
  "thi": 694,
  "xx": 695,
  "Ai": 696,
  "Hqr": 697,
  "SSj": 698,
  "Tnw": 699,
  "rnpi": 700,
  "snsn": 701,
  "wni": 702,
  "dnj": 703,
  "jmAxw": 704,
  "wAS": 705,
  "yA": 706,
  "aAb": 707,
  "dAb": 708,
  "kAp": 709,
  "nH": 710,
  "nmH": 711,
  "qnb": 712,
  "xb": 713,
  "bs": 714,
  "dy": 715,
  "gmm": 716,
  "hh": 717,
  "jmw": 718,
  "jpn": 719,
  "pfy": 720,
  "sH": 721,
  "HfA": 722,
  "Hnmm": 723,
  "Hzw": 724,
  "bAbA": 725,
  "jS": 726,
  "jzf": 727,
  "mjz": 728,
  "mnS": 729,
  "mtj": 730,
  "rnn": 731,
  "Atp": 732,
  "XAr": 733,
  "mAs": 734,
  "nnSm": 735,
  "sqr": 736,
  "zwn": 737,
  "zwr": 738,
  "Hsmn": 739,
  "SnD": 740,
  "mXn": 741,
  "npA": 742,
  "sDd": 743,
  "wxAx": 744,
  "Xs": 745,
  "anD": 746,
  "gm": 747,
  "jrf": 748,
  "pfj": 749,
  "sbjw": 750,
  "wrd": 751,
  "xmi": 752,
  "xpp": 753,
  "Aq": 754,
  "Atf": 755,
  "Hsq": 756,
  "Xdb": 757,
  "jdA": 758,
  "jxm": 759,
  "psS": 760,
  "rD": 761,
  "wS": 762,
  "Hzmn": 763,
  "SAs": 764,
  "abS": 765,
  "rwj": 766,
  "TAz": 767,
  "mAq": 768,
  "znf": 769,
  "antj": 770,
  "hru": 771,
  "nf": 772,
  "rr": 773,
  "sTj": 774,
  "snn": 775,
  "stA": 776,
  "wDi": 777,
  "ztj": 778,
  "HwA": 779,
  "jHy": 780,
  "pp": 781,
  "snd": 782,
  "swD": 783,
  "wrS": 784,
  "btA": 785,
  "gn": 786,
  "msw": 787,
  "sAq": 788,
  "swn": 789,
  "Hwn": 790,
  "Ttj": 791,
  "abA": 792,
  "jAx": 793,
  "sqd": 794,
  "xfa": 795,
  "xwj": 796,
  "Db": 797,
  "Tb": 798,
  "aDd": 799,
  "jnm": 800,
  "rk": 801,
  "rwd": 802,
  "sAb": 803,
  "tmm": 804,
  "Df": 805,
  "dn": 806,
  "jms": 807,
  "jns": 808,
  "qmy": 809,
  "Sbn": 810,
  "Srjw": 811,
  "jbH": 812,
  "kfA": 813,
  "pna": 814,
  "ry": 815,
  "sq": 816,
  "wdp": 817,
  "DAm": 818,
  "HAq": 819,
  "Hnn": 820,
  "dwn": 821,
  "qAr": 822,
  "snaa": 823,
  "tdu": 824,
  "xd": 825,
  "xsr": 826,
  "Hfn": 827,
  "jar": 828,
  "jh": 829,
  "sAw": 830,
  "sSA": 831,
  "sst": 832,
  "wHA": 833,
  "Tbw": 834,
  "awn": 835,
  "axm": 836,
  "dgA": 837,
  "fx": 838,
  "jdn": 839,
  "msH": 840,
  "nS": 841,
  "sqdi": 842,
  "swAD": 843,
  "wan": 844,
  "xnr": 845,
  "Drj": 846,
  "SfSf": 847,
  "Tnf": 848,
  "jnpw": 849,
  "jtH": 850,
  "mnD": 851,
  "nkt": 852,
  "nni": 853,
  "qmH": 854,
  "sXA": 855,
  "sft": 856,
  "snm": 857,
  "HAp": 858,
  "Htrj": 859,
  "arr": 860,
  "gAb": 861,
  "jgr": 862,
  "jnH": 863,
  "nk": 864,
  "rp": 865,
  "smsw": 866,
  "jbj": 867,
  "nDr": 868,
  "qdS": 869,
  "rH": 870,
  "sgnn": 871,
  "spH": 872,
  "swtx": 873,
  "Snd": 874,
  "Ssr": 875,
  "aDA": 876,
  "gmH": 877,
  "hp": 878,
  "mna": 879,
  "nDnD": 880,
  "nkn": 881,
  "nwH": 882,
  "prj": 883,
  "sTz": 884,
  "sbH": 885,
  "swtj": 886,
  "wDH": 887,
  "waw": 888,
  "xdi": 889,
  "xp": 890,
  "xti": 891,
  "zzj": 892,
  "Ad": 893,
  "Smm": 894,
  "jwH": 895,
  "knmw": 896,
  "nmj": 897,
  "th": 898,
  "wbd": 899,
  "zni": 900,
  "Snn": 901,
  "Spsj": 902,
  "TpH": 903,
  "ant": 904,
  "nhm": 905,
  "ntr": 906,
  "pi": 907,
  "rwi": 908,
  "sHtm": 909,
  "swab": 910,
  "Daw": 911,
  "Sj": 912,
  "Tnn": 913,
  "nxx": 914,
  "xprj": 915,
  "zb": 916,
  "Da": 917,
  "Ddi": 918,
  "Drw": 919,
  "jnq": 920,
  "jrT": 921,
  "jsk": 922,
  "jstw": 923,
  "jwd": 924,
  "mDd": 925,
  "nSnj": 926,
  "sAD": 927,
  "xy": 928,
  "zAA": 929,
  "HAw": 930,
  "Xnj": 931,
  "gAu": 932,
  "msd": 933,
  "mss": 934,
  "mxA": 935,
  "nSm": 936,
  "ni": 937,
  "nwy": 938,
  "sam": 939,
  "DnH": 940,
  "Hq": 941,
  "ba": 942,
  "bdS": 943,
  "njw": 944,
  "snfr": 945,
  "srq": 946,
  "tx": 947,
  "Snb": 948,
  "Tr": 949,
  "jaA": 950,
  "mAn": 951,
  "mAt": 952,
  "ny": 953,
  "pAq": 954,
  "pd": 955,
  "qAs": 956,
  "Hrj": 957,
  "dns": 958,
  "fA": 959,
  "mHi": 960,
  "mSr": 961,
  "nTri": 962,
  "ri": 963,
  "srwD": 964,
  "ssm": 965,
  "xj": 966,
  "SASA": 967,
  "bb": 968,
  "gHs": 969,
  "kf": 970,
  "mtn": 971,
  "nai": 972,
  "nhp": 973,
  "smAm": 974,
  "snw": 975,
  "tjy": 976,
  "tpnn": 977,
  "Hzj": 978,
  "XAk": 979,
  "awAi": 980,
  "bnbn": 981,
  "jwtn": 982,
  "maw": 983,
  "mds": 984,
  "snj": 985,
  "twr": 986,
  "wSd": 987,
  "xnw": 988,
  "ann": 989,
  "btj": 990,
  "dw": 991,
  "jdm": 992,
  "nwn": 993,
  "nww": 994,
  "sdA": 995,
  "srx": 996,
  "tkA": 997,
  "xsbd": 998,
  "zjf": 999,
  "Hms": 1000,
  "Hwt": 1001,
  "SnT": 1002,
  "Szm": 1003,
  "aa": 1004,
  "bS": 1005,
  "bjtj": 1006,
  "fnd": 1007,
  "jaAw": 1008,
  "rj": 1009,
  "sDfA": 1010,
  "saAi": 1011,
  "wAgS": 1012,
  "xprr": 1013,
  "zAT": 1014,
  "Akr": 1015,
  "Tni": 1016,
  "bbj": 1017,
  "bdn": 1018,
  "hj": 1019,
  "ks": 1020,
  "kt": 1021,
  "mTn": 1022,
  "msxn": 1023,
  "ntw": 1024,
  "qmAm": 1025,
  "wSa": 1026,
  "Abb": 1027,
  "Hapi": 1028,
  "Hy": 1029,
  "THnw": 1030,
  "bnw": 1031,
  "dndn": 1032,
  "fr": 1033,
  "hd": 1034,
  "jptn": 1035,
  "manD": 1036,
  "mnd": 1037,
  "rmni": 1038,
  "sbq": 1039,
  "sgr": 1040,
  "sni": 1041,
  "wd": 1042,
  "wrSu": 1043,
  "xbA": 1044,
  "xpd": 1045,
  "zAt": 1046,
  "Ams": 1047,
  "Azx": 1048,
  "Dar": 1049,
  "Say": 1050,
  "Tnj": 1051,
  "ft": 1052,
  "mHnk": 1053,
  "nrw": 1054,
  "nwr": 1055,
  "ps": 1056,
  "qAj": 1057,
  "qni": 1058,
  "sAA": 1059,
  "sHri": 1060,
  "Dnn": 1061,
  "bH": 1062,
  "pSn": 1063,
  "sdm": 1064,
  "smx": 1065,
  "sqbb": 1066,
  "ss": 1067,
  "ssn": 1068,
  "wH": 1069,
  "AT": 1070,
  "Abi": 1071,
  "Amj": 1072,
  "Ddj": 1073,
  "Xkrt": 1074,
  "amAm": 1075,
  "baHi": 1076,
  "dhn": 1077,
  "ftk": 1078,
  "hy": 1079,
  "jmAxwt": 1080,
  "ngA": 1081,
  "qrr": 1082,
  "sAr": 1083,
  "sqAi": 1084,
  "swAi": 1085,
  "sxn": 1086,
  "wnD": 1087,
  "Ddw": 1088,
  "Hqt": 1089,
  "Tt": 1090,
  "bAg": 1091,
  "fqA": 1092,
  "hb": 1093,
  "jnj": 1094,
  "kAy": 1095,
  "mHy": 1096,
  "mnt": 1097,
  "mrrj": 1098,
  "nwi": 1099,
  "sbi": 1100,
  "thm": 1101,
  "wTs": 1102,
  "wx": 1103,
  "xbs": 1104,
  "xnz": 1105,
  "DAy": 1106,
  "atx": 1107,
  "bHz": 1108,
  "hAA": 1109,
  "hAn": 1110,
  "jzn": 1111,
  "nwd": 1112,
  "qjs": 1113,
  "qnd": 1114,
  "sSsA": 1115,
  "saq": 1116,
  "swAS": 1117,
  "thA": 1118,
  "wmt": 1119,
  "xaa": 1120,
  "Am": 1121,
  "DdH": 1122,
  "Sny": 1123,
  "bnn": 1124,
  "jmH": 1125,
  "jwaa": 1126,
  "mntf": 1127,
  "mzH": 1128,
  "pAu": 1129,
  "pjpj": 1130,
  "rDw": 1131,
  "sSn": 1132,
  "si": 1133,
  "skm": 1134,
  "skr": 1135,
  "snH": 1136,
  "tAH": 1137,
  "wnS": 1138,
  "zpA": 1139,
  "Agb": 1140,
  "Hpj": 1141,
  "Smj": 1142,
  "Snf": 1143,
  "Spsi": 1144,
  "Ttw": 1145,
  "dAj": 1146,
  "dDw": 1147,
  "gAy": 1148,
  "hmhm": 1149,
  "jsf": 1150,
  "jsj": 1151,
  "jzj": 1152,
  "kAr": 1153,
  "kn": 1154,
  "maHa": 1155,
  "msk": 1156,
  "nbt": 1157,
  "nqa": 1158,
  "ntsn": 1159,
  "smy": 1160,
  "srd": 1161,
  "srs": 1162,
  "waf": 1163,
  "wtt": 1164,
  "xAm": 1165,
  "xAy": 1166,
  "HAy": 1167,
  "SAb": 1168,
  "SAw": 1169,
  "Sdd": 1170,
  "SwA": 1171,
  "Tm": 1172,
  "jAy": 1173,
  "jdr": 1174,
  "jsw": 1175,
  "ktx": 1176,
  "mjw": 1177,
  "psDn": 1178,
  "px": 1179,
  "py": 1180,
  "sAi": 1181,
  "sdb": 1182,
  "sxd": 1183,
  "sxmx": 1184,
  "tjHn": 1185,
  "wdd": 1186,
  "wnmj": 1187,
  "wrj": 1188,
  "Hap": 1189,
  "HzA": 1190,
  "St": 1191,
  "Sz": 1192,
  "Tzm": 1193,
  "aAa": 1194,
  "afn": 1195,
  "jArr": 1196,
  "kr": 1197,
  "krjw": 1198,
  "nma": 1199,
  "pgA": 1200,
  "pwn": 1201,
  "sja": 1202,
  "sqdd": 1203,
  "whA": 1204,
  "xAx": 1205,
  "DAA": 1206,
  "Ssm": 1207,
  "anw": 1208,
  "awj": 1209,
  "dmA": 1210,
  "gAw": 1211,
  "jAA": 1212,
  "kAi": 1213,
  "kAj": 1214,
  "ndj": 1215,
  "ntj": 1216,
  "ptpt": 1217,
  "qj": 1218,
  "saA": 1219,
  "sty": 1220,
  "swsx": 1221,
  "wbx": 1222,
  "wyt": 1223,
  "zt": 1224,
  "Dab": 1225,
  "Dwi": 1226,
  "HHj": 1227,
  "Htj": 1228,
  "Hwr": 1229,
  "Sntj": 1230,
  "Xaq": 1231,
  "aDn": 1232,
  "hnn": 1233,
  "hrp": 1234,
  "jbi": 1235,
  "jbw": 1236,
  "jhAy": 1237,
  "kAkA": 1238,
  "mabA": 1239,
  "mfk": 1240,
  "nbi": 1241,
  "ng": 1242,
  "rq": 1243,
  "sbn": 1244,
  "srj": 1245,
  "txb": 1246,
  "xArw": 1247,
  "xAwj": 1248,
  "xni": 1249,
  "xnp": 1250,
  "Amm": 1251,
  "Ar": 1252,
  "Hjp": 1253,
  "HmAy": 1254,
  "Snt": 1255,
  "and": 1256,
  "bAqA": 1257,
  "bz": 1258,
  "fn": 1259,
  "jfd": 1260,
  "jptw": 1261,
  "jyj": 1262,
  "kAS": 1263,
  "mAx": 1264,
  "msAD": 1265,
  "pzH": 1266,
  "qnjw": 1267,
  "sHm": 1268,
  "sTp": 1269,
  "sjqr": 1270,
  "smt": 1271,
  "snk": 1272,
  "snq": 1273,
  "sxnti": 1274,
  "wsj": 1275,
  "wstn": 1276,
  "xf": 1277,
  "xnn": 1278,
  "xwAw": 1279,
  "zbn": 1280,
  "AA": 1281,
  "Abx": 1282,
  "DAjs": 1283,
  "Ddf": 1284,
  "Dt": 1285,
  "HAi": 1286,
  "Hzy": 1287,
  "Sfd": 1288,
  "SmA": 1289,
  "Tsm": 1290,
  "axi": 1291,
  "byt": 1292,
  "gnn": 1293,
  "jAq": 1294,
  "jwnw": 1295,
  "kS": 1296,
  "mar": 1297,
  "nhA": 1298,
  "np": 1299,
  "nri": 1300,
  "pz": 1301,
  "qnw": 1302,
  "snTrj": 1303,
  "tS": 1304,
  "watt": 1305,
  "xtjw": 1306,
  "HnHn": 1307,
  "SAj": 1308,
  "Smw": 1309,
  "Srr": 1310,
  "afA": 1311,
  "bT": 1312,
  "bsi": 1313,
  "bxn": 1314,
  "dHr": 1315,
  "jSs": 1316,
  "jT": 1317,
  "jTj": 1318,
  "jbA": 1319,
  "kfi": 1320,
  "mAH": 1321,
  "mfkA": 1322,
  "mrt": 1323,
  "nar": 1324,
  "nbD": 1325,
  "nbd": 1326,
  "nhi": 1327,
  "nhzi": 1328,
  "nsb": 1329,
  "nxtj": 1330,
  "sHd": 1331,
  "sHwr": 1332,
  "sXkr": 1333,
  "sfn": 1334,
  "wAw": 1335,
  "wAwA": 1336,
  "wv": 1337,
  "wvH": 1338,
  "xbi": 1339,
  "xma": 1340,
  "xnj": 1341,
  "znb": 1342,
  "ATp": 1343,
  "Aj": 1344,
  "At": 1345,
  "HTA": 1346,
  "Hf": 1347,
  "Sbb": 1348,
  "aHAw": 1349,
  "bsk": 1350,
  "gj": 1351,
  "jaw": 1352,
  "mkHA": 1353,
  "mnn": 1354,
  "nAj": 1355,
  "nT": 1356,
  "nhj": 1357,
  "nnj": 1358,
  "npl": 1359,
  "pS": 1360,
  "plt": 1361,
  "sAt": 1362,
  "sab": 1363,
  "sar": 1364,
  "sry": 1365,
  "stt": 1366,
  "tf": 1367,
  "twn": 1368,
  "wAb": 1369,
  "wSA": 1370,
  "wnf": 1371,
  "xtxt": 1372,
  "xwy": 1373,
  "zjn": 1374,
  "Hfd": 1375,
  "Hknw": 1376,
  "Hpy": 1377,
  "Hss": 1378,
  "TAr": 1379,
  "bjAi": 1380,
  "fAj": 1381,
  "ftt": 1382,
  "gmA": 1383,
  "jan": 1384,
  "jkn": 1385,
  "jnw": 1386,
  "kAw": 1387,
  "kb": 1388,
  "kfa": 1389,
  "mAtj": 1390,
  "mmj": 1391,
  "nHA": 1392,
  "nHi": 1393,
  "nq": 1394,
  "pSr": 1395,
  "pds": 1396,
  "pry": 1397,
  "rTn": 1398,
  "rnsj": 1399,
  "rpw": 1400,
  "rrm": 1401,
  "rxs": 1402,
  "sbtj": 1403,
  "shA": 1404,
  "snnj": 1405,
  "spi": 1406,
  "srwd": 1407,
  "swAH": 1408,
  "tmA": 1409,
  "wsfA": 1410,
  "xsbD": 1411,
  "Hdb": 1412,
  "Hny": 1413,
  "Hwj": 1414,
  "Hwy": 1415,
  "HyA": 1416,
  "Spt": 1417,
  "Sww": 1418,
  "Try": 1419,
  "bAgi": 1420,
  "bkA": 1421,
  "jmny": 1422,
  "jnD": 1423,
  "mHn": 1424,
  "mXr": 1425,
  "mjtr": 1426,
  "mnjw": 1427,
  "msdi": 1428,
  "mskA": 1429,
  "msq": 1430,
  "nfrt": 1431,
  "ntt": 1432,
  "pAD": 1433,
  "pnq": 1434,
  "psg": 1435,
  "qAA": 1436,
  "qdj": 1437,
  "qra": 1438,
  "rSw": 1439,
  "sAu": 1440,
  "sSnj": 1441,
  "snwx": 1442,
  "wDD": 1443,
  "wtT": 1444,
  "wxr": 1445,
  "xAb": 1446,
  "xaw": 1447,
  "AxAx": 1448,
  "Ddd": 1449,
  "Hwrw": 1450,
  "SAms": 1451,
  "ST": 1452,
  "Smaw": 1453,
  "Swj": 1454,
  "aSm": 1455,
  "af": 1456,
  "aqw": 1457,
  "ary": 1458,
  "bzi": 1459,
  "dS": 1460,
  "dmd": 1461,
  "dq": 1462,
  "hATs": 1463,
  "jTAy": 1464,
  "jdH": 1465,
  "jk": 1466,
  "jwnA": 1467,
  "mAjr": 1468,
  "mAjw": 1469,
  "mHa": 1470,
  "mHj": 1471,
  "msDD": 1472,
  "msdd": 1473,
  "naa": 1474,
  "nhAm": 1475,
  "njA": 1476,
  "psH": 1477,
  "qAy": 1478,
  "qbb": 1479,
  "rSu": 1480,
  "smH": 1481,
  "swr": 1482,
  "sxni": 1483,
  "szf": 1484,
  "tjam": 1485,
  "tnr": 1486,
  "tpH": 1487,
  "twAw": 1488,
  "wAm": 1489,
  "wHy": 1490,
  "wnSj": 1491,
  "wsf": 1492,
  "wzS": 1493,
  "zi": 1494,
  "zy": 1495,
  "AS": 1496,
  "DAs": 1497,
  "Dbw": 1498,
  "HAtt": 1499,
  "Hbn": 1500,
  "Hty": 1501,
  "Ttf": 1502,
  "aAy": 1503,
  "amA": 1504,
  "anxw": 1505,
  "arar": 1506,
  "bSi": 1507,
  "bnrj": 1508,
  "dAjr": 1509,
  "gsA": 1510,
  "gw": 1511,
  "hAkr": 1512,
  "jAxi": 1513,
  "jSst": 1514,
  "jq": 1515,
  "ki": 1516,
  "mzw": 1517,
  "nnw": 1518,
  "nrjw": 1519,
  "pAi": 1520,
  "qrH": 1521,
  "rDww": 1522,
  "rSj": 1523,
  "rrmi": 1524,
  "sjw": 1525,
  "tb": 1526,
  "tjHwj": 1527,
  "tk": 1528,
  "tnm": 1529,
  "xntS": 1530,
  "xwd": 1531,
  "zk": 1532,
  "zx": 1533,
  "Aa": 1534,
  "DdA": 1535,
  "Dsf": 1536,
  "Dwjw": 1537,
  "HAd": 1538,
  "HAtj": 1539,
  "Haw": 1540,
  "Hpw": 1541,
  "Hrr": 1542,
  "Hsj": 1543,
  "SAy": 1544,
  "SS": 1545,
  "Saj": 1546,
  "Snty": 1547,
  "Swy": 1548,
  "Tnr": 1549,
  "Tntj": 1550,
  "Xsj": 1551,
  "ani": 1552,
  "ara": 1553,
  "bAkj": 1554,
  "bSt": 1555,
  "drp": 1556,
  "ffj": 1557,
  "fnx": 1558,
  "jdi": 1559,
  "jwy": 1560,
  "mkj": 1561,
  "nrA": 1562,
  "qrf": 1563,
  "qrj": 1564,
  "qw": 1565,
  "rdw": 1566,
  "rrj": 1567,
  "saSA": 1568,
  "sfj": 1569,
  "sgA": 1570,
  "spXr": 1571,
  "sskA": 1572,
  "stm": 1573,
  "swnwn": 1574,
  "swtwt": 1575,
  "tfnw": 1576,
  "thr": 1577,
  "tjj": 1578,
  "tnj": 1579,
  "txtx": 1580,
  "tyt": 1581,
  "wAx": 1582,
  "xAr": 1583,
  "xnsw": 1584,
  "xry": 1585,
  "xtA": 1586,
  "xtmw": 1587,
  "zSn": 1588,
  "zfT": 1589,
  "Dn": 1590,
  "HDw": 1591,
  "Sayd": 1592,
  "Ti": 1593,
  "Tnt": 1594,
  "Xp": 1595,
  "aba": 1596,
  "antjw": 1597,
  "bar": 1598,
  "bgA": 1599,
  "bxtn": 1600,
  "by": 1601,
  "dmy": 1602,
  "gngn": 1603,
  "gstj": 1604,
  "gwA": 1605,
  "hm": 1606,
  "jpy": 1607,
  "jss": 1608,
  "ksb": 1609,
  "mAwj": 1610,
  "mjs": 1611,
  "mny": 1612,
  "msT": 1613,
  "msy": 1614,
  "nSn": 1615,
  "nay": 1616,
  "nfA": 1617,
  "njk": 1618,
  "nsy": 1619,
  "nwt": 1620,
  "qnn": 1621,
  "rsw": 1622,
  "rwjA": 1623,
  "saAm": 1624,
  "shAi": 1625,
  "sqb": 1626,
  "ssnb": 1627,
  "stkn": 1628,
  "sxs": 1629,
  "txn": 1630,
  "wb": 1631,
  "xAd": 1632,
  "xam": 1633,
  "yn": 1634,
  "zz": 1635,
  "Asb": 1636,
  "DiDi": 1637,
  "Dnd": 1638,
  "Hmn": 1639,
  "Hnb": 1640,
  "Hnt": 1641,
  "Hsp": 1642,
  "Hww": 1643,
  "SdH": 1644,
  "Tj": 1645,
  "XAm": 1646,
  "Xsi": 1647,
  "aff": 1648,
  "ai": 1649,
  "ama": 1650,
  "amaa": 1651,
  "amam": 1652,
  "anq": 1653,
  "bDA": 1654,
  "bHn": 1655,
  "bHni": 1656,
  "dAw": 1657,
  "dwAw": 1658,
  "fnT": 1659,
  "gbtw": 1660,
  "hbn": 1661,
  "jAl": 1662,
  "jHty": 1663,
  "jSS": 1664,
  "jkb": 1665,
  "jws": 1666,
  "kns": 1667,
  "mAT": 1668,
  "mAr": 1669,
  "maA": 1670,
  "mh": 1671,
  "mnq": 1672,
  "mntj": 1673,
  "nzr": 1674,
  "qfn": 1675,
  "qm": 1676,
  "rpa": 1677,
  "rxy": 1678,
  "sHrjw": 1679,
  "swhA": 1680,
  "swsr": 1681,
  "tHn": 1682,
  "tjA": 1683,
  "tni": 1684,
  "wADy": 1685,
  "wSn": 1686,
  "wnDw": 1687,
  "xs": 1688,
  "zbj": 1689,
  "zmAm": 1690,
  "zmn": 1691,
  "zmy": 1692,
  "zxni": 1693,
  "Atj": 1694,
  "Axt": 1695,
  "Axw": 1696,
  "DHwt": 1697,
  "Hsw": 1698,
  "Saw": 1699,
  "SmAj": 1700,
  "Stj": 1701,
  "Sy": 1702,
  "TAm": 1703,
  "THH": 1704,
  "Tms": 1705,
  "abw": 1706,
  "bAw": 1707,
  "bHs": 1708,
  "bi": 1709,
  "bqs": 1710,
  "btn": 1711,
  "bwA": 1712,
  "dgi": 1713,
  "dgm": 1714,
  "fAy": 1715,
  "gbA": 1716,
  "jbrj": 1717,
  "jmk": 1718,
  "jqd": 1719,
  "kAmn": 1720,
  "knm": 1721,
  "ksj": 1722,
  "mAwD": 1723,
  "mjt": 1724,
  "msDi": 1725,
  "nAw": 1726,
  "nDrjw": 1727,
  "naw": 1728,
  "nd": 1729,
  "nqm": 1730,
  "ptx": 1731,
  "qq": 1732,
  "rDj": 1733,
  "rhn": 1734,
  "rmt": 1735,
  "rt": 1736,
  "rwhA": 1737,
  "sHr": 1738,
  "sSwi": 1739,
  "sXr": 1740,
  "sa": 1741,
  "sbt": 1742,
  "sdj": 1743,
  "sfxx": 1744,
  "sksk": 1745,
  "snT": 1746,
  "sxi": 1747,
  "tH": 1748,
  "ti": 1749,
  "tkk": 1750,
  "tnn": 1751,
  "tpA": 1752,
  "twnj": 1753,
  "wADw": 1754,
  "whi": 1755,
  "wnwn": 1756,
  "wrm": 1757,
  "xbn": 1758,
  "xnfw": 1759,
  "ym": 1760,
  "znn": 1761,
  "DAf": 1762,
  "Dri": 1763,
  "Dsrt": 1764,
  "Dy": 1765,
  "Dz": 1766,
  "HaA": 1767,
  "Hmj": 1768,
  "TAs": 1769,
  "TmA": 1770,
  "Tzz": 1771,
  "agA": 1772,
  "bD": 1773,
  "bjwk": 1774,
  "bsbs": 1775,
  "dHA": 1776,
  "dnH": 1777,
  "dqr": 1778,
  "gAbw": 1779,
  "gAs": 1780,
  "hAj": 1781,
  "hw": 1782,
  "jHA": 1783,
  "jTT": 1784,
  "jhy": 1785,
  "jmntw": 1786,
  "jny": 1787,
  "jsr": 1788,
  "jttj": 1789,
  "kArj": 1790,
  "mAfd": 1791,
  "maH": 1792,
  "mnTw": 1793,
  "mnjnjw": 1794,
  "mnxt": 1795,
  "msj": 1796,
  "mstA": 1797,
  "nby": 1798,
  "njnj": 1799,
  "npr": 1800,
  "nrj": 1801,
  "nwD": 1802,
  "pAx": 1803,
  "sAT": 1804,
  "sHwi": 1805,
  "sTni": 1806,
  "sdbH": 1807,
  "smsm": 1808,
  "smtr": 1809,
  "snti": 1810,
  "sswnu": 1811,
  "sxnt": 1812,
  "tAw": 1813,
  "tbn": 1814,
  "tjs": 1815,
  "tkAw": 1816,
  "tyw": 1817,
  "wAww": 1818,
  "wf": 1819,
  "wgg": 1820,
  "wtw": 1821,
  "zpi": 1822,
  "zr": 1823,
  "zwA": 1824,
  "Ah": 1825,
  "Dnj": 1826,
  "Drjw": 1827,
  "Dsw": 1828,
  "Hab": 1829,
  "Hnnj": 1830,
  "Hntj": 1831,
  "HtA": 1832,
  "Htpj": 1833,
  "Hwa": 1834,
  "SAjs": 1835,
  "SAm": 1836,
  "Sfy": 1837,
  "afD": 1838,
  "bSA": 1839,
  "bdd": 1840,
  "bhA": 1841,
  "bq": 1842,
  "bt": 1843,
  "dH": 1844,
  "dgAs": 1845,
  "dny": 1846,
  "fdq": 1847,
  "gmj": 1848,
  "hAp": 1849,
  "hbu": 1850,
  "hnj": 1851,
  "hnqw": 1852,
  "jbr": 1853,
  "ji": 1854,
  "jnd": 1855,
  "jntj": 1856,
  "jsq": 1857,
  "knz": 1858,
  "ksi": 1859,
  "mSd": 1860,
  "mhw": 1861,
  "mjmj": 1862,
  "msn": 1863,
  "mxnt": 1864,
  "nSni": 1865,
  "nmnm": 1866,
  "nsrsr": 1867,
  "nxA": 1868,
  "pAyw": 1869,
  "pHrr": 1870,
  "ptj": 1871,
  "qAjs": 1872,
  "qdd": 1873,
  "sAwi": 1874,
  "sHw": 1875,
  "sSt": 1876,
  "shr": 1877,
  "sjs": 1878,
  "smAwi": 1879,
  "srw": 1880,
  "ssAi": 1881,
  "stn": 1882,
  "tpj": 1883,
  "wjn": 1884,
  "wpp": 1885,
  "xAxA": 1886,
  "xay": 1887,
  "xbxb": 1888,
  "xmnw": 1889,
  "xnS": 1890,
  "xtj": 1891,
  "zT": 1892,
  "zm": 1893,
  "zxz": 1894,
  "Aby": 1895,
  "Ama": 1896,
  "DHwtt": 1897,
  "Dww": 1898,
  "HDn": 1899,
  "Hmm": 1900,
  "Hnj": 1901,
  "HntA": 1902,
  "Hry": 1903,
  "Spn": 1904,
  "Stm": 1905,
  "TH": 1906,
  "TtTt": 1907,
  "awAy": 1908,
  "bAwj": 1909,
  "dx": 1910,
  "fT": 1911,
  "fnt": 1912,
  "grt": 1913,
  "hrr": 1914,
  "htj": 1915,
  "jAwj": 1916,
  "jHw": 1917,
  "jSr": 1918,
  "jgA": 1919,
  "jkm": 1920,
  "jmntj": 1921,
  "jnnk": 1922,
  "jntsn": 1923,
  "jtwr": 1924,
  "kHkH": 1925,
  "ktt": 1926,
  "mAwi": 1927,
  "mS": 1928,
  "mTA": 1929,
  "mak": 1930,
  "mstj": 1931,
  "mtA": 1932,
  "mx": 1933,
  "nHsj": 1934,
  "nhs": 1935,
  "nht": 1936,
  "nnk": 1937,
  "nnm": 1938,
  "nsj": 1939,
  "nzp": 1940,
  "pAd": 1941,
  "qAH": 1942,
  "qa": 1943,
  "rAw": 1944,
  "rtnw": 1945,
  "rwy": 1946,
  "sTzi": 1947,
  "saDA": 1948,
  "sby": 1949,
  "sdgA": 1950,
  "sjm": 1951,
  "smjw": 1952,
  "sndu": 1953,
  "snt": 1954,
  "sntrj": 1955,
  "snxt": 1956,
  "sswnw": 1957,
  "stwt": 1958,
  "sxai": 1959,
  "sxsx": 1960,
  "tms": 1961,
  "twrj": 1962,
  "txi": 1963,
  "wAr": 1964,
  "wAxi": 1965,
  "whn": 1966,
  "wnt": 1967,
  "wpj": 1968,
  "wpt": 1969,
  "wrry": 1970,
  "zf": 1971,
  "Aaa": 1972,
  "AqA": 1973,
  "DAD": 1974,
  "DH": 1975,
  "Daa": 1976,
  "DjDj": 1977,
  "Dndr": 1978,
  "Hbb": 1979,
  "Hj": 1980,
  "HjHj": 1981,
  "Hk": 1982,
  "Hmy": 1983,
  "HnbAbA": 1984,
  "Sai": 1985,
  "Sty": 1986,
  "THHwy": 1987,
  "TTj": 1988,
  "Tndu": 1989,
  "XpA": 1990,
  "Xtb": 1991,
  "aXn": 1992,
  "afd": 1993,
  "anp": 1994,
  "bAX": 1995,
  "bAby": 1996,
  "bAkjw": 1997,
  "bAy": 1998,
  "bgs": 1999,
  "bjAk": 2000,
  "bxx": 2001,
  "dAjw": 2002,
  "dng": 2003,
  "dpw": 2004,
  "gbgb": 2005,
  "gz": 2006,
  "hAnA": 2007,
  "jAbi": 2008,
  "jAj": 2009,
  "jAkb": 2010,
  "jHj": 2011,
  "jara": 2012,
  "jbb": 2013,
  "jbn": 2014,
  "jdj": 2015,
  "jmr": 2016,
  "jpf": 2017,
  "jsy": 2018,
  "jwj": 2019,
  "jwpw": 2020,
  "jxr": 2021,
  "kDn": 2022,
  "kbnj": 2023,
  "khb": 2024,
  "ksw": 2025,
  "mdn": 2026,
  "mnfy": 2027,
  "mtnw": 2028,
  "mtrtw": 2029,
  "mzHw": 2030,
  "nHd": 2031,
  "nSA": 2032,
  "nTrj": 2033,
  "nX": 2034,
  "nfrj": 2035,
  "nhmhm": 2036,
  "njm": 2037,
  "nqr": 2038,
  "pg": 2039,
  "pnd": 2040,
  "ppj": 2041,
  "pq": 2042,
  "pqr": 2043,
  "prwj": 2044,
  "qAd": 2045,
  "qdjw": 2046,
  "qdw": 2047,
  "qrqr": 2048,
  "rmm": 2049,
  "rpy": 2050,
  "rxj": 2051,
  "sAtA": 2052,
  "sHb": 2053,
  "sTs": 2054,
  "sbAy": 2055,
  "shru": 2056,
  "snfrw": 2057,
  "ssw": 2058,
  "swS": 2059,
  "sxw": 2060,
  "tjtj": 2061,
  "tmt": 2062,
  "twnn": 2063,
  "twti": 2064,
  "u": 2065,
  "wSr": 2066,
  "wawa": 2067,
  "wdj": 2068,
  "wnj": 2069,
  "wrSt": 2070,
  "wsxt": 2071,
  "xAsw": 2072,
  "xar": 2073,
  "xnty": 2074,
  "xrS": 2075,
  "xrj": 2076,
  "zAi": 2077,
  "znj": 2078,
  "zxi": 2079,
  "AHt": 2080,
  "AhA": 2081,
  "Ajr": 2082,
  "Ayt": 2083,
  "Daam": 2084,
  "Ddm": 2085,
  "DrDr": 2086,
  "DrjDrj": 2087,
  "HTT": 2088,
  "Hns": 2089,
  "Hrs": 2090,
  "Hwra": 2091,
  "SAi": 2092,
  "Saq": 2093,
  "SdSd": 2094,
  "SmSm": 2095,
  "Smsi": 2096,
  "Stw": 2097,
  "Xrt": 2098,
  "Xt": 2099,
  "Xzi": 2100,
  "aHwwtj": 2101,
  "adw": 2102,
  "anxj": 2103,
  "astj": 2104,
  "bhn": 2105,
  "ddwn": 2106,
  "drf": 2107,
  "dxn": 2108,
  "fdi": 2109,
  "gAHs": 2110,
  "gbw": 2111,
  "gsgs": 2112,
  "gy": 2113,
  "jAk": 2114,
  "jAzn": 2115,
  "jbsA": 2116,
  "jhA": 2117,
  "jkw": 2118,
  "jmnt": 2119,
  "jmpy": 2120,
  "jpt": 2121,
  "jsb": 2122,
  "jsp": 2123,
  "jtw": 2124,
  "jwjw": 2125,
  "jwsw": 2126,
  "jxj": 2127,
  "kAm": 2128,
  "kApw": 2129,
  "kbs": 2130,
  "kkwy": 2131,
  "ksm": 2132,
  "ktkt": 2133,
  "mAaj": 2134,
  "mAmA": 2135,
  "mHwn": 2136,
  "mSn": 2137,
  "mdnj": 2138,
  "mjj": 2139,
  "mjnb": 2140,
  "mjnj": 2141,
  "mxsf": 2142,
  "mxw": 2143,
  "nAyw": 2144,
  "nDmnDm": 2145,
  "nHp": 2146,
  "nfAj": 2147,
  "njAjA": 2148,
  "nmw": 2149,
  "nny": 2150,
  "npH": 2151,
  "nst": 2152,
  "ntS": 2153,
  "nwA": 2154,
  "nwj": 2155,
  "nxbxb": 2156,
  "nz": 2157,
  "pX": 2158,
  "pfA": 2159,
  "pfs": 2160,
  "prS": 2161,
  "qrjs": 2162,
  "rnpj": 2163,
  "sHmi": 2164,
  "sHrj": 2165,
  "sTn": 2166,
  "sXnk": 2167,
  "sbS": 2168,
  "sg": 2169,
  "sjAt": 2170,
  "sjpj": 2171,
  "sndw": 2172,
  "snhA": 2173,
  "sny": 2174,
  "sxntj": 2175,
  "sxti": 2176,
  "sxtxt": 2177,
  "szn": 2178,
  "tAxb": 2179,
  "tSi": 2180,
  "tbj": 2181,
  "wADwAD": 2182,
  "wDj": 2183,
  "waa": 2184,
  "wbs": 2185,
  "wgA": 2186,
  "whm": 2187,
  "wnb": 2188,
  "wng": 2189,
  "wnmi": 2190,
  "xbd": 2191,
  "xnD": 2192,
  "xsA": 2193,
  "ywt": 2194,
  "zft": 2195,
  "zmjn": 2196,
  "ATw": 2197,
  "DAj": 2198,
  "Ddb": 2199,
  "DfD": 2200,
  "HApw": 2201,
  "Hfdi": 2202,
  "HmAm": 2203,
  "Hmtj": 2204,
  "Hnzk": 2205,
  "Hrt": 2206,
  "HwAA": 2207,
  "Sbi": 2208,
  "TAu": 2209,
  "THHw": 2210,
  "Ttt": 2211,
  "XAb": 2212,
  "aAw": 2213,
  "aXm": 2214,
  "awg": 2215,
  "axx": 2216,
  "bAb": 2217,
  "baba": 2218,
  "bk": 2219,
  "bnD": 2220,
  "bsn": 2221,
  "dAdA": 2222,
  "dbA": 2223,
  "dbdb": 2224,
  "djfn": 2225,
  "dwi": 2226,
  "fAw": 2227,
  "fkA": 2228,
  "fq": 2229,
  "ftft": 2230,
  "fw": 2231,
  "gg": 2232,
  "gp": 2233,
  "hAd": 2234,
  "hdn": 2235,
  "hi": 2236,
  "hwt": 2237,
  "jAbt": 2238,
  "jAjr": 2239,
  "jSf": 2240,
  "jTt": 2241,
  "jhj": 2242,
  "jhm": 2243,
  "jmntt": 2244,
  "jpl": 2245,
  "jqrj": 2246,
  "jrtjw": 2247,
  "jsd": 2248,
  "jww": 2249,
  "jxx": 2250,
  "jzi": 2251,
  "jzkn": 2252,
  "kAn": 2253,
  "kAt": 2254,
  "kSj": 2255,
  "kkw": 2256,
  "mAat": 2257,
  "mAnw": 2258,
  "mDAb": 2259,
  "mDdw": 2260,
  "mDr": 2261,
  "mXt": 2262,
  "mawH": 2263,
  "mgA": 2264,
  "mnf": 2265,
  "mnqb": 2266,
  "mst": 2267,
  "nbH": 2268,
  "nfj": 2269,
  "nhsi": 2270,
  "nxj": 2271,
  "pSS": 2272,
  "pnw": 2273,
  "prw": 2274,
  "prx": 2275,
  "psDi": 2276,
  "psmTk": 2277,
  "pyr": 2278,
  "qAqA": 2279,
  "qD": 2280,
  "qdi": 2281,
  "rSrS": 2282,
  "rrk": 2283,
  "sAm": 2284,
  "sDH": 2285,
  "sHA": 2286,
  "sHAp": 2287,
  "sSAA": 2288,
  "sXAww": 2289,
  "sarq": 2290,
  "sfA": 2291,
  "sky": 2292,
  "snx": 2293,
  "srjw": 2294,
  "srm": 2295,
  "ssf": 2296,
  "stnm": 2297,
  "swgA": 2298,
  "sww": 2299,
  "swxA": 2300,
  "sxa": 2301,
  "tjms": 2302,
  "tmAm": 2303,
  "tnbX": 2304,
  "wDfi": 2305,
  "wSS": 2306,
  "wSm": 2307,
  "waA": 2308,
  "wfA": 2309,
  "wgi": 2310,
  "wgs": 2311,
  "wnp": 2312,
  "wrt": 2313,
  "wrw": 2314,
  "wsTn": 2315,
  "wtn": 2316,
  "xfA": 2317,
  "xntSj": 2318,
  "zSzS": 2319,
  "zam": 2320,
  "zbA": 2321,
  "zwnT": 2322,
  "Abdw": 2323,
  "Ahd": 2324,
  "DAt": 2325,
  "DAw": 2326,
  "DfAw": 2327,
  "Drww": 2328,
  "HAa": 2329,
  "HDD": 2330,
  "Han": 2331,
  "Hatj": 2332,
  "Hbnnw": 2333,
  "Hfj": 2334,
  "HnT": 2335,
  "Hnkz": 2336,
  "Hnsk": 2337,
  "HntAsw": 2338,
  "Hsr": 2339,
  "Htpt": 2340,
  "Hwtf": 2341,
  "Hzp": 2342,
  "Hzzy": 2343,
  "SAT": 2344,
  "SAsw": 2345,
  "Saf": 2346,
  "Sbw": 2347,
  "Sdj": 2348,
  "Smai": 2349,
  "Smsj": 2350,
  "SnTT": 2351,
  "Snm": 2352,
  "Spnn": 2353,
  "Spst": 2354,
  "TAj": 2355,
  "Tfw": 2356,
  "TjTj": 2357,
  "Tkw": 2358,
  "Tntt": 2359,
  "Xms": 2360,
  "Xnmt": 2361,
  "Xrw": 2362,
  "XsA": 2363,
  "aAg": 2364,
  "aSj": 2365,
  "aan": 2366,
  "aanj": 2367,
  "anty": 2368,
  "arrw": 2369,
  "bAgs": 2370,
  "bAn": 2371,
  "bTn": 2372,
  "baHj": 2373,
  "bnf": 2374,
  "bny": 2375,
  "bwi": 2376,
  "dAr": 2377,
  "ddj": 2378,
  "dg": 2379,
  "dgs": 2380,
  "djdj": 2381,
  "djw": 2382,
  "dsj": 2383,
  "fdw": 2384,
  "fntj": 2385,
  "fsi": 2386,
  "fy": 2387,
  "gAH": 2388,
  "gAS": 2389,
  "gS": 2390,
  "gsfn": 2391,
  "hbhb": 2392,
  "hnhn": 2393,
  "hni": 2394,
  "jAT": 2395,
  "jAi": 2396,
  "jbAn": 2397,
  "jbT": 2398,
  "jby": 2399,
  "jdy": 2400,
  "jgp": 2401,
  "jhh": 2402,
  "jmAm": 2403,
  "jmy": 2404,
  "jnmm": 2405,
  "jnxj": 2406,
  "jptf": 2407,
  "jtA": 2408,
  "jwdn": 2409,
  "jzr": 2410,
  "jzzy": 2411,
  "kAA": 2412,
  "kT": 2413,
  "kh": 2414,
  "mHt": 2415,
  "mST": 2416,
  "manx": 2417,
  "mdj": 2418,
  "mfx": 2419,
  "mhi": 2420,
  "mjni": 2421,
  "mni": 2422,
  "mnzA": 2423,
  "mrrt": 2424,
  "msD": 2425,
  "mtwn": 2426,
  "mwy": 2427,
  "nDf": 2428,
  "nDw": 2429,
  "nSw": 2430,
  "nhd": 2431,
  "nmst": 2432,
  "nmtj": 2433,
  "nxAxA": 2434,
  "nxw": 2435,
  "pAwr": 2436,
  "pAz": 2437,
  "pan": 2438,
  "pwj": 2439,
  "pzS": 2440,
  "qAjw": 2441,
  "qbw": 2442,
  "qfdn": 2443,
  "sAHw": 2444,
  "sASr": 2445,
  "sArj": 2446,
  "sAsA": 2447,
  "sAy": 2448,
  "sDf": 2449,
  "sSmm": 2450,
  "sXm": 2451,
  "sbjA": 2452,
  "sdAdA": 2453,
  "sdwx": 2454,
  "sfd": 2455,
  "sfxw": 2456,
  "sgb": 2457,
  "sjAT": 2458,
  "skj": 2459,
  "skt": 2460,
  "smAy": 2461,
  "snS": 2462,
  "snbj": 2463,
  "snmH": 2464,
  "sps": 2465,
  "sqbH": 2466,
  "ssx": 2467,
  "stx": 2468,
  "swbA": 2469,
  "swh": 2470,
  "sxAw": 2471,
  "sxdxd": 2472,
  "sxpt": 2473,
  "sxsf": 2474,
  "sxwn": 2475,
  "sy": 2476,
  "tAyw": 2477,
  "tStS": 2478,
  "tfi": 2479,
  "tfy": 2480,
  "thAb": 2481,
  "tjr": 2482,
  "tjwtj": 2483,
  "tny": 2484,
  "wg": 2485,
  "wjAwjA": 2486,
  "wpS": 2487,
  "wpwt": 2488,
  "wrHw": 2489,
  "wsS": 2490,
  "wti": 2491,
  "xaj": 2492,
  "xmw": 2493,
  "xmy": 2494,
  "xnnj": 2495,
  "xnrt": 2496,
  "xsbb": 2497,
  "xsd": 2498,
  "xsfi": 2499,
  "xwfw": 2500,
  "xwsi": 2501,
  "xwzi": 2502,
  "yai": 2503,
  "zAr": 2504,
  "zHp": 2505,
  "znS": 2506,
  "zxA": 2507,
  "Ajs": 2508,
  "Apdw": 2509,
  "Axj": 2510,
  "DHA": 2511,
  "DHa": 2512,
  "DrT": 2513,
  "Dswi": 2514,
  "HAww": 2515,
  "HDr": 2516,
  "HaDA": 2517,
  "Hnnw": 2518,
  "Hsk": 2519,
  "Hsy": 2520,
  "SAd": 2521,
  "SAr": 2522,
  "SD": 2523,
  "SnDt": 2524,
  "Stp": 2525,
  "TTw": 2526,
  "Tp": 2527,
  "Tsj": 2528,
  "Tss": 2529,
  "Tsy": 2530,
  "TwA": 2531,
  "Twfj": 2532,
  "Xaa": 2533,
  "Xam": 2534,
  "XnXn": 2535,
  "Xri": 2536,
  "aAA": 2537,
  "aAD": 2538,
  "aX": 2539,
  "abb": 2540,
  "agt": 2541,
  "anar": 2542,
  "arw": 2543,
  "axy": 2544,
  "bAS": 2545,
  "bSS": 2546,
  "bSd": 2547,
  "bg": 2548,
  "bl": 2549,
  "bnd": 2550,
  "br": 2551,
  "btAw": 2552,
  "bzA": 2553,
  "dbHn": 2554,
  "dby": 2555,
  "dni": 2556,
  "fgA": 2557,
  "fk": 2558,
  "gAbi": 2559,
  "gi": 2560,
  "gmgm": 2561,
  "gsw": 2562,
  "hAbwj": 2563,
  "hAm": 2564,
  "hhj": 2565,
  "htt": 2566,
  "jAaS": 2567,
  "jAg": 2568,
  "jAkm": 2569,
  "jAt": 2570,
  "jTn": 2571,
  "jTw": 2572,
  "jjj": 2573,
  "jksj": 2574,
  "jmt": 2575,
  "jnT": 2576,
  "jna": 2577,
  "jnjw": 2578,
  "jnty": 2579,
  "jnz": 2580,
  "jpp": 2581,
  "jra": 2582,
  "jtrw": 2583,
  "jtt": 2584,
  "jwms": 2585,
  "jwnn": 2586,
  "jxxj": 2587,
  "jzp": 2588,
  "kAhs": 2589,
  "knj": 2590,
  "kpw": 2591,
  "krj": 2592,
  "kz": 2593,
  "mAf": 2594,
  "mHA": 2595,
  "mSA": 2596,
  "mXnm": 2597,
  "mXrj": 2598,
  "mdd": 2599,
  "mhn": 2600,
  "mhwj": 2601,
  "mnjA": 2602,
  "mnjn": 2603,
  "mns": 2604,
  "mntwf": 2605,
  "mrHw": 2606,
  "mrry": 2607,
  "mrwt": 2608,
  "msdmt": 2609,
  "mwmw": 2610,
  "mxn": 2611,
  "mxr": 2612,
  "mzA": 2613,
  "nAn": 2614,
  "nDA": 2615,
  "nDHDH": 2616,
  "nHD": 2617,
  "naS": 2618,
  "nbA": 2619,
  "nbb": 2620,
  "ndb": 2621,
  "nfa": 2622,
  "njwjw": 2623,
  "nkAj": 2624,
  "nmrT": 2625,
  "nts": 2626,
  "nwAwA": 2627,
  "nxv": 2628,
  "pAs": 2629,
  "paw": 2630,
  "pgAjs": 2631,
  "pgAs": 2632,
  "pnTw": 2633,
  "pns": 2634,
  "pss": 2635,
  "pyA": 2636,
  "qdm": 2637,
  "qmd": 2638,
  "rHH": 2639,
  "rdj": 2640,
  "rmnw": 2641,
  "rnpw": 2642,
  "rqA": 2643,
  "rqy": 2644,
  "rww": 2645,
  "sAd": 2646,
  "sAwj": 2647,
  "sDrjw": 2648,
  "sDwi": 2649,
  "sHqA": 2650,
  "sHt": 2651,
  "sSkr": 2652,
  "sTnj": 2653,
  "sXnn": 2654,
  "sXp": 2655,
  "sbAq": 2656,
  "sdAwg": 2657,
  "sdx": 2658,
  "sfg": 2659,
  "sh": 2660,
  "shrr": 2661,
  "sjAA": 2662,
  "sjd": 2663,
  "sjni": 2664,
  "sjrA": 2665,
  "sjwi": 2666,
  "smHi": 2667,
  "sma": 2668,
  "smwn": 2669,
  "snTi": 2670,
  "snbb": 2671,
  "snny": 2672,
  "sns": 2673,
  "snwxt": 2674,
  "spp": 2675,
  "spy": 2676,
  "sqn": 2677,
  "sqnn": 2678,
  "srD": 2679,
  "sswn": 2680,
  "stXj": 2681,
  "stf": 2682,
  "stni": 2683,
  "stpt": 2684,
  "subst": 2685,
  "swj": 2686,
  "swrd": 2687,
  "sxnj": 2688,
  "sxrw": 2689,
  "sxx": 2690,
  "sxy": 2691,
  "tHwA": 2692,
  "tT": 2693,
  "thAm": 2694,
  "thn": 2695,
  "tjmH": 2696,
  "wAy": 2697,
  "wDAw": 2698,
  "wDfA": 2699,
  "wDn": 2700,
  "wSAwSA": 2701,
  "wT": 2702,
  "wbdj": 2703,
  "wbdy": 2704,
  "wdHw": 2705,
  "wh": 2706,
  "whnn": 2707,
  "wnmy": 2708,
  "wntj": 2709,
  "wrs": 2710,
  "wsi": 2711,
  "wty": 2712,
  "xAD": 2713,
  "xAbs": 2714,
  "xAwt": 2715,
  "xbb": 2716,
  "xfj": 2717,
  "xnmm": 2718,
  "xntw": 2719,
  "xnws": 2720,
  "xtf": 2721,
  "zSSn": 2722,
  "zSp": 2723,
  "zX": 2724,
  "zbT": 2725,
  "znw": 2726,
  "AD": 2727,
  "ADA": 2728,
  "AbA": 2729,
  "Ag": 2730,
  "Agg": 2731,
  "Ak": 2732,
  "Awj": 2733,
  "Axi": 2734,
  "DAd": 2735,
  "DHtj": 2736,
  "Dbb": 2737,
  "DfDf": 2738,
  "Dma": 2739,
  "Dnw": 2740,
  "HAj": 2741,
  "HAr": 2742,
  "Hbnbn": 2743,
  "Hd": 2744,
  "HnA": 2745,
  "SAA": 2746,
  "SAjw": 2747,
  "Sddj": 2748,
  "Sdn": 2749,
  "Sfu": 2750,
  "Spty": 2751,
  "Srw": 2752,
  "Stjw": 2753,
  "TT": 2754,
  "Tf": 2755,
  "Tfj": 2756,
  "Tjf": 2757,
  "Tjs": 2758,
  "Tnm": 2759,
  "Twn": 2760,
  "Xb": 2761,
  "Xnnw": 2762,
  "Xny": 2763,
  "Xz": 2764,
  "aDdj": 2765,
  "aSgAj": 2766,
  "aXi": 2767,
  "aby": 2768,
  "aft": 2769,
  "agAy": 2770,
  "amAT": 2771,
  "amm": 2772,
  "anan": 2773,
  "annw": 2774,
  "apAy": 2775,
  "api": 2776,
  "apw": 2777,
  "arfwj": 2778,
  "bAA": 2779,
  "bAbj": 2780,
  "bAi": 2781,
  "bAkA": 2782,
  "bX": 2783,
  "ban": 2784,
  "bbw": 2785,
  "bjbj": 2786,
  "bnS": 2787,
  "bnrt": 2788,
  "brt": 2789,
  "bss": 2790,
  "bsy": 2791,
  "bwj": 2792,
  "bwn": 2793,
  "bwy": 2794,
  "ddw": 2795,
  "dgAy": 2796,
  "dwnj": 2797,
  "fAt": 2798,
  "fxx": 2799,
  "gASj": 2800,
  "gAfj": 2801,
  "gHsA": 2802,
  "gsr": 2803,
  "hAbnj": 2804,
  "hAmm": 2805,
  "hAr": 2806,
  "hArw": 2807,
  "hbi": 2808,
  "hbj": 2809,
  "hbnj": 2810,
  "hbnw": 2811,
  "hnnj": 2812,
  "hpAT": 2813,
  "hpj": 2814,
  "hpn": 2815,
  "jAS": 2816,
  "jAbw": 2817,
  "jAdr": 2818,
  "jAs": 2819,
  "jTr": 2820,
  "jaS": 2821,
  "jaa": 2822,
  "jbjb": 2823,
  "jbtj": 2824,
  "jf": 2825,
  "jfdj": 2826,
  "jfj": 2827,
  "jjw": 2828,
  "jmnw": 2829,
  "jpd": 2830,
  "jqw": 2831,
  "jsds": 2832,
  "jzy": 2833,
  "jzz": 2834,
  "kHA": 2835,
  "khA": 2836,
  "kms": 2837,
  "kp": 2838,
  "mAd": 2839,
  "mAm": 2840,
  "mAy": 2841,
  "mDw": 2842,
  "mSS": 2843,
  "mSwS": 2844,
  "mT": 2845,
  "mhAw": 2846,
  "mhr": 2847,
  "mmrm": 2848,
  "mnDm": 2849,
  "mnfA": 2850,
  "mnm": 2851,
  "mntjw": 2852,
  "mntw": 2853,
  "mrrw": 2854,
  "mtk": 2855,
  "mzi": 2856,
  "mzmz": 2857,
  "mzwr": 2858,
  "nDADA": 2859,
  "nDtj": 2860,
  "nHmm": 2861,
  "nHrwj": 2862,
  "nSd": 2863,
  "nSny": 2864,
  "nfrw": 2865,
  "nft": 2866,
  "nfy": 2867,
  "ngg": 2868,
  "nhw": 2869,
  "nhy": 2870,
  "njt": 2871,
  "nnA": 2872,
  "nnS": 2873,
  "nrr": 2874,
  "nsjsj": 2875,
  "nssq": 2876,
  "nswy": 2877,
  "nsyt": 2878,
  "ntb": 2879,
  "pDi": 2880,
  "pDw": 2881,
  "pHr": 2882,
  "pHs": 2883,
  "pHwj": 2884,
  "pfsi": 2885,
  "prt": 2886,
  "ptn": 2887,
  "pxd": 2888,
  "pzx": 2889,
  "qbqb": 2890,
  "qdb": 2891,
  "qrrj": 2892,
  "rDy": 2893,
  "rHw": 2894,
  "rkHw": 2895,
  "rmy": 2896,
  "rrw": 2897,
  "ru": 2898,
  "sAbw": 2899,
  "sDw": 2900,
  "sHAi": 2901,
  "sHsH": 2902,
  "sHwrj": 2903,
  "sSS": 2904,
  "sSmw": 2905,
  "sSwA": 2906,
  "sTAm": 2907,
  "sXAk": 2908,
  "sXb": 2909,
  "sXi": 2910,
  "saHw": 2911,
  "sbqA": 2912,
  "sdd": 2913,
  "sdmj": 2914,
  "sdwA": 2915,
  "sfnd": 2916,
  "sfr": 2917,
  "sfy": 2918,
  "sjH": 2919,
  "sjar": 2920,
  "skn": 2921,
  "smAwj": 2922,
  "smHr": 2923,
  "smtj": 2924,
  "smw": 2925,
  "snTri": 2926,
  "snfxfx": 2927,
  "snsnj": 2928,
  "spdd": 2929,
  "spt": 2930,
  "spxA": 2931,
  "srmw": 2932,
  "ssj": 2933,
  "sspd": 2934,
  "str": 2935,
  "swy": 2936,
  "sxAy": 2937,
  "tHwj": 2938,
  "tbA": 2939,
  "tbsTA": 2940,
  "tbw": 2941,
  "tjH": 2942,
  "tjHwA": 2943,
  "tjdu": 2944,
  "tjmHj": 2945,
  "tjpl": 2946,
  "tjwt": 2947,
  "tnt": 2948,
  "tpy": 2949,
  "trp": 2950,
  "try": 2951,
  "tv": 2952,
  "twtw": 2953,
  "wADt": 2954,
  "wAHwAH": 2955,
  "wAgj": 2956,
  "wAxj": 2957,
  "wDf": 2958,
  "wHAm": 2959,
  "wHs": 2960,
  "wHwH": 2961,
  "wdb": 2962,
  "wdnw": 2963,
  "wgAs": 2964,
  "whAj": 2965,
  "whAn": 2966,
  "whs": 2967,
  "wm": 2968,
  "wnwt": 2969,
  "wry": 2970,
  "wsH": 2971,
  "wsy": 2972,
  "wtA": 2973,
  "wxAwy": 2974,
  "xAj": 2975,
  "xAwy": 2976,
  "xi": 2977,
  "xjxj": 2978,
  "xjy": 2979,
  "xmm": 2980,
  "xntt": 2981,
  "xny": 2982,
  "xprpw": 2983,
  "xsbt": 2984,
  "xtmt": 2985,
  "xwrr": 2986,
  "xwx": 2987,
  "ytj": 2988,
  "yv": 2989,
  "zSS": 2990,
  "zSi": 2991,
  "zSj": 2992,
  "zbb": 2993,
  "zby": 2994,
  "zmz": 2995,
  "zpr": 2996,
  "ATi": 2997,
  "AXb": 2998,
  "Aaanj": 2999,
  "Abj": 3000,
  "Adj": 3001,
  "Afa": 3002,
  "An": 3003,
  "Ap": 3004,
  "Asq": 3005,
  "Aty": 3006,
  "Awr": 3007,
  "Awt": 3008,
  "Aww": 3009,
  "Az": 3010,
  "DAb": 3011,
  "DbAw": 3012,
  "Dbay": 3013,
  "DdT": 3014,
  "Dm": 3015,
  "DrDrj": 3016,
  "Dry": 3017,
  "DwDw": 3018,
  "HAdj": 3019,
  "HAtjw": 3020,
  "HAwr": 3021,
  "HDb": 3022,
  "HDt": 3023,
  "Haj": 3024,
  "Hbi": 3025,
  "Hbnnt": 3026,
  "Hby": 3027,
  "Hdd": 3028,
  "Hmu": 3029,
  "HnTi": 3030,
  "Hnbw": 3031,
  "Hni": 3032,
  "Hnmnm": 3033,
  "HnswA": 3034,
  "Hpd": 3035,
  "Hpr": 3036,
  "Hst": 3037,
  "Htpw": 3038,
  "Htw": 3039,
  "SAS": 3040,
  "SAbd": 3041,
  "SAmswt": 3042,
  "Sdnw": 3043,
  "Sft": 3044,
  "Sfw": 3045,
  "Si": 3046,
  "SmAm": 3047,
  "Snay": 3048,
  "Sndy": 3049,
  "Snp": 3050,
  "Snwj": 3051,
  "Spsw": 3052,
  "StAw": 3053,
  "StAy": 3054,
  "Su": 3055,
  "TAb": 3056,
  "TAtj": 3057,
  "THnn": 3058,
  "THr": 3059,
  "Tbww": 3060,
  "Tktn": 3061,
  "Trf": 3062,
  "Trm": 3063,
  "Tsw": 3064,
  "TwTw": 3065,
  "Tzj": 3066,
  "Tzt": 3067,
  "XAw": 3068,
  "Xa": 3069,
  "Xd": 3070,
  "Xnk": 3071,
  "Xrm": 3072,
  "Xsw": 3073,
  "XtXt": 3074,
  "Xzj": 3075,
  "aAaA": 3076,
  "aAj": 3077,
  "aDAw": 3078,
  "aDi": 3079,
  "aHw": 3080,
  "aaAm": 3081,
  "aaf": 3082,
  "aaw": 3083,
  "abH": 3084,
  "abab": 3085,
  "agwt": 3086,
  "annxj": 3087,
  "ap": 3088,
  "apSA": 3089,
  "app": 3090,
  "aqAn": 3091,
  "aqaq": 3092,
  "awDr": 3093,
  "awy": 3094,
  "axw": 3095,
  "ay": 3096,
  "bAd": 3097,
  "bAgj": 3098,
  "bAj": 3099,
  "bAkw": 3100,
  "bAnd": 3101,
  "bAst": 3102,
  "bTA": 3103,
  "baj": 3104,
  "bjnr": 3105,
  "bnt": 3106,
  "bsj": 3107,
  "bsw": 3108,
  "bwt": 3109,
  "bxnj": 3110,
  "dAg": 3111,
  "dbHw": 3112,
  "dgAw": 3113,
  "dh": 3114,
  "djA": 3115,
  "dmg": 3116,
  "dnm": 3117,
  "dpH": 3118,
  "dupl": 3119,
  "dwAy": 3120,
  "dwDw": 3121,
  "dz": 3122,
  "fAA": 3123,
  "fa": 3124,
  "fg": 3125,
  "fnn": 3126,
  "gAA": 3127,
  "gAbg": 3128,
  "gAnn": 3129,
  "gH": 3130,
  "gbi": 3131,
  "gbty": 3132,
  "gf": 3133,
  "gmHs": 3134,
  "gnX": 3135,
  "gnw": 3136,
  "grj": 3137,
  "grw": 3138,
  "hAbt": 3139,
  "hAnw": 3140,
  "hDhD": 3141,
  "hbjw": 3142,
  "hbq": 3143,
  "hjw": 3144,
  "hnjnj": 3145,
  "hry": 3146,
  "ht": 3147,
  "jAdj": 3148,
  "jAkw": 3149,
  "jAmA": 3150,
  "jHtj": 3151,
  "jaj": 3152,
  "jana": 3153,
  "jbd": 3154,
  "jbh": 3155,
  "jhbw": 3156,
  "jkj": 3157,
  "jmsT": 3158,
  "jmzw": 3159,
  "jndb": 3160,
  "jnnA": 3161,
  "jnsi": 3162,
  "jrtj": 3163,
  "jsbw": 3164,
  "jsdd": 3165,
  "jsdn": 3166,
  "jsdz": 3167,
  "jsn": 3168,
  "jsx": 3169,
  "jtjw": 3170,
  "jv": 3171,
  "jwm": 3172,
  "jwtj": 3173,
  "kAs": 3174,
  "kAwj": 3175,
  "kfAw": 3176,
  "khAb": 3177,
  "kkwj": 3178,
  "kmA": 3179,
  "knH": 3180,
  "knkn": 3181,
  "knmwt": 3182,
  "krSt": 3183,
  "ksks": 3184,
  "kss": 3185,
  "ktj": 3186,
  "ktw": 3187,
  "kwms": 3188,
  "kyj": 3189,
  "mAgs": 3190,
  "mAkj": 3191,
  "mAui": 3192,
  "mAv": 3193,
  "mDAt": 3194,
  "mDqt": 3195,
  "mHrj": 3196,
  "mSrw": 3197,
  "mXaq": 3198,
  "maHA": 3199,
  "makA": 3200,
  "makHA": 3201,
  "makj": 3202,
  "maq": 3203,
  "mard": 3204,
  "matn": 3205,
  "mdwy": 3206,
  "mjnA": 3207,
  "mkA": 3208,
  "mkw": 3209,
  "mnhz": 3210,
  "mntt": 3211,
  "mnwy": 3212,
  "mnz": 3213,
  "msnH": 3214,
  "mspr": 3215,
  "mssj": 3216,
  "msv": 3217,
  "msxAA": 3218,
  "mtrj": 3219,
  "mty": 3220,
  "mzj": 3221,
  "mzt": 3222,
  "nAt": 3223,
  "nAwt": 3224,
  "nDdDd": 3225,
  "nDnDtj": 3226,
  "nDrw": 3227,
  "nHn": 3228,
  "nHrw": 3229,
  "nSD": 3230,
  "nXn": 3231,
  "nbAbA": 3232,
  "nbnb": 3233,
  "nbsj": 3234,
  "nbsy": 3235,
  "ndy": 3236,
  "nftft": 3237,
  "ngAgA": 3238,
  "nhr": 3239,
  "nhrn": 3240,
  "nhwt": 3241,
  "nhz": 3242,
  "njsj": 3243,
  "njsw": 3244,
  "nkk": 3245,
  "npj": 3246,
  "npnp": 3247,
  "npw": 3248,
  "nqf": 3249,
  "ntAi": 3250,
  "ntnt": 3251,
  "nty": 3252,
  "nws": 3253,
  "nwx": 3254,
  "nxtv": 3255,
  "nznzn": 3256,
  "pAa": 3257,
  "pAv": 3258,
  "pAwtj": 3259,
  "pHD": 3260,
  "pHt": 3261,
  "pHw": 3262,
  "papa": 3263,
  "pay": 3264,
  "pjTA": 3265,
  "pnjAt": 3266,
  "pnn": 3267,
  "pnz": 3268,
  "qAa": 3269,
  "qAmd": 3270,
  "qdwt": 3271,
  "qf": 3272,
  "qfA": 3273,
  "qmj": 3274,
  "qmnn": 3275,
  "qrst": 3276,
  "qry": 3277,
  "qsj": 3278,
  "qst": 3279,
  "qt": 3280,
  "qwr": 3281,
  "qzn": 3282,
  "rArAmw": 3283,
  "rDD": 3284,
  "rT": 3285,
  "rdm": 3286,
  "rdt": 3287,
  "rhd": 3288,
  "rhni": 3289,
  "rkm": 3290,
  "rmw": 3291,
  "rqi": 3292,
  "rqw": 3293,
  "rwwj": 3294,
  "sAbj": 3295,
  "sAjr": 3296,
  "sAmm": 3297,
  "sDAy": 3298,
  "sHAw": 3299,
  "sHqr": 3300,
  "sSj": 3301,
  "sSmj": 3302,
  "sTHn": 3303,
  "sTy": 3304,
  "sXrj": 3305,
  "sand": 3306,
  "sbAg": 3307,
  "sbHw": 3308,
  "sbjwk": 3309,
  "sdH": 3310,
  "sdgAw": 3311,
  "sgrH": 3312,
  "sjwr": 3313,
  "skk": 3314,
  "smAr": 3315,
  "smDd": 3316,
  "smHj": 3317,
  "smar": 3318,
  "smsi": 3319,
  "snHA": 3320,
  "snHm": 3321,
  "snbw": 3322,
  "snfj": 3323,
  "snnm": 3324,
  "sntj": 3325,
  "snwt": 3326,
  "snxx": 3327,
  "sprw": 3328,
  "spw": 3329,
  "sqdj": 3330,
  "sqrj": 3331,
  "ssA": 3332,
  "ssAA": 3333,
  "ssD": 3334,
  "ssfj": 3335,
  "ssnDm": 3336,
  "stb": 3337,
  "stnw": 3338,
  "swAgA": 3339,
  "swAw": 3340,
  "swd": 3341,
  "swmt": 3342,
  "swnu": 3343,
  "swsn": 3344,
  "swst": 3345,
  "swxt": 3346,
  "sxAx": 3347,
  "sxpj": 3348,
  "sz": 3349,
  "szwnu": 3350,
  "szwr": 3351,
  "tAf": 3352,
  "tAtA": 3353,
  "tfA": 3354,
  "tjHnw": 3355,
  "tntj": 3356,
  "tty": 3357,
  "twAwt": 3358,
  "twhA": 3359,
  "twk": 3360,
  "twri": 3361,
  "txj": 3362,
  "txw": 3363,
  "tyj": 3364,
  "wATj": 3365,
  "wAgi": 3366,
  "wAmm": 3367,
  "wAsi": 3368,
  "wAt": 3369,
  "wDy": 3370,
  "wSAm": 3371,
  "wSby": 3372,
  "wawy": 3373,
  "wbtj": 3374,
  "wdf": 3375,
  "wgAg": 3376,
  "whb": 3377,
  "whnj": 3378,
  "wjwj": 3379,
  "wjyt": 3380,
  "wnmw": 3381,
  "wnu": 3382,
  "wny": 3383,
  "wps": 3384,
  "wsdn": 3385,
  "wsir": 3386,
  "wsrkn": 3387,
  "wsrt": 3388,
  "wst": 3389,
  "wtjw": 3390,
  "wtx": 3391,
  "wxdw": 3392,
  "xAA": 3393,
  "xAt": 3394,
  "xAtb": 3395,
  "xbD": 3396,
  "xbss": 3397,
  "xbx": 3398,
  "xfnn": 3399,
  "xfxf": 3400,
  "xfy": 3401,
  "xmx": 3402,
  "xmxm": 3403,
  "xnmw": 3404,
  "xnrj": 3405,
  "xnsA": 3406,
  "xnsAy": 3407,
  "xprw": 3408,
  "xpx": 3409,
  "xri": 3410,
  "xrwy": 3411,
  "xrxr": 3412,
  "xsD": 3413,
  "xtw": 3414,
  "xty": 3415,
  "xwA": 3416,
  "xwns": 3417,
  "xws": 3418,
  "xww": 3419,
  "xxw": 3420,
  "xxwj": 3421,
  "xz": 3422,
  "xzd": 3423,
  "yar": 3424,
  "yhj": 3425,
  "yi": 3426,
  "ytt": 3427,
  "ywm": 3428,
  "zAS": 3429,
  "zATw": 3430,
  "zAhl": 3431,
  "zAtw": 3432,
  "zAy": 3433,
  "zbnbn": 3434,
  "znH": 3435,
  "znHm": 3436,
  "znT": 3437,
  "znbA": 3438,
  "znnj": 3439,
  "zrm": 3440,
  "zwT": 3441,
  "AAj": 3442,
  "ATt": 3443,
  "AXa": 3444,
  "Aab": 3445,
  "Aafj": 3446,
  "AbAb": 3447,
  "Abu": 3448,
  "Af": 3449,
  "Agbj": 3450,
  "Aht": 3451,
  "Ajw": 3452,
  "Amy": 3453,
  "Apt": 3454,
  "Aqdqd": 3455,
  "Asx": 3456,
  "Atw": 3457,
  "AwA": 3458,
  "Awsw": 3459,
  "AxA": 3460,
  "Axb": 3461,
  "Axtj": 3462,
  "DAfj": 3463,
  "DAjw": 3464,
  "DAmw": 3465,
  "DAn": 3466,
  "DHaa": 3467,
  "Dan": 3468,
  "DarA": 3469,
  "Dbn": 3470,
  "Ddt": 3471,
  "Dfd": 3472,
  "Dfi": 3473,
  "Dhn": 3474,
  "Diw": 3475,
  "Dnwd": 3476,
  "DsDs": 3477,
  "HAqA": 3478,
  "HAs": 3479,
  "HAtw": 3480,
  "HAwy": 3481,
  "HDj": 3482,
  "HDnDn": 3483,
  "HDnw": 3484,
  "HHi": 3485,
  "HTAwj": 3486,
  "HbA": 3487,
  "Hba": 3488,
  "Hbsw": 3489,
  "HdD": 3490,
  "Hdqq": 3491,
  "Hfnn": 3492,
  "Hfrn": 3493,
  "Hfy": 3494,
  "Hi": 3495,
  "Hjy": 3496,
  "HkAht": 3497,
  "HkAw": 3498,
  "HmAg": 3499,
  "Hmww": 3500,
  "Hmz": 3501,
  "Hngg": 3502,
  "Hnkt": 3503,
  "Hnkw": 3504,
  "Hnky": 3505,
  "Hnm": 3506,
  "Hnti": 3507,
  "Hnyt": 3508,
  "Hptj": 3509,
  "Hqn": 3510,
  "Hqrr": 3511,
  "Hrjw": 3512,
  "Hrti": 3513,
  "Hrtj": 3514,
  "HtAw": 3515,
  "Htpwj": 3516,
  "Hwraw": 3517,
  "Hwsw": 3518,
  "Hwtj": 3519,
  "Hzzj": 3520,
  "SASAy": 3521,
  "SATw": 3522,
  "SAasx": 3523,
  "SAbw": 3524,
  "SAf": 3525,
  "SAp": 3526,
  "STy": 3527,
  "Sat": 3528,
  "SbSb": 3529,
  "Sbnw": 3530,
  "Sbtj": 3531,
  "Sdw": 3532,
  "Sdy": 3533,
  "SfS": 3534,
  "Sfa": 3535,
  "Sfn": 3536,
  "Sfnw": 3537,
  "Sjk": 3538,
  "Smsw": 3539,
  "SnDw": 3540,
  "SpS": 3541,
  "Spssj": 3542,
  "Spw": 3543,
  "Sq": 3544,
  "Srdn": 3545,
  "Sri": 3546,
  "Ssy": 3547,
  "StT": 3548,
  "Swb": 3549,
  "Swwj": 3550,
  "Szpp": 3551,
  "TAmwt": 3552,
  "TApr": 3553,
  "TAry": 3554,
  "TAwj": 3555,
  "Tbn": 3556,
  "ThA": 3557,
  "TjA": 3558,
  "TjT": 3559,
  "Tjm": 3560,
  "Tjrr": 3561,
  "Tkr": 3562,
  "TmH": 3563,
  "Tmrw": 3564,
  "Tmzj": 3565,
  "Tmzw": 3566,
  "TnH": 3567,
  "Tnfj": 3568,
  "Trj": 3569,
  "Trw": 3570,
  "TsjA": 3571,
  "Tsjs": 3572,
  "Tst": 3573,
  "Ttn": 3574,
  "Tzmy": 3575,
  "Tzy": 3576,
  "XAA": 3577,
  "XAj": 3578,
  "XAp": 3579,
  "XAs": 3580,
  "XAy": 3581,
  "XTb": 3582,
  "XdXd": 3583,
  "Xdr": 3584,
  "Xnt": 3585,
  "Xpa": 3586,
  "Xss": 3587,
  "Xti": 3588,
  "Xty": 3589,
  "aAp": 3590,
  "aAt": 3591,
  "aDAj": 3592,
  "aDaD": 3593,
  "aDdjw": 3594,
  "aDjaDj": 3595,
  "aHaj": 3596,
  "aHaw": 3597,
  "aHwtj": 3598,
  "aSgAjw": 3599,
  "aXnwtj": 3600,
  "aaj": 3601,
  "aawj": 3602,
  "abAbA": 3603,
  "ady": 3604,
  "afj": 3605,
  "agrtb": 3606,
  "agw": 3607,
  "ajn": 3608,
  "ak": 3609,
  "akk": 3610,
  "amd": 3611,
  "anDw": 3612,
  "anj": 3613,
  "ankk": 3614,
  "antA": 3615,
  "anxt": 3616,
  "apS": 3617,
  "apj": 3618,
  "apnn": 3619,
  "aprw": 3620,
  "apy": 3621,
  "aqi": 3622,
  "aqj": 3623,
  "arqA": 3624,
  "arry": 3625,
  "as": 3626,
  "at": 3627,
  "axjw": 3628,
  "bAD": 3629,
  "bAbAt": 3630,
  "bAbAwt": 3631,
  "bAgA": 3632,
  "bHbH": 3633,
  "bStA": 3634,
  "bTy": 3635,
  "baHw": 3636,
  "bgAs": 3637,
  "bgAw": 3638,
  "bh": 3639,
  "bjAj": 3640,
  "bjAy": 3641,
  "bjm": 3642,
  "bmbw": 3643,
  "bnu": 3644,
  "bqn": 3645,
  "brbr": 3646,
  "btS": 3647,
  "btbt": 3648,
  "bx": 3649,
  "bxnt": 3650,
  "byA": 3651,
  "bzj": 3652,
  "bzn": 3653,
  "dAs": 3654,
  "dHdH": 3655,
  "dHrj": 3656,
  "dHw": 3657,
  "dSdS": 3658,
  "dbj": 3659,
  "dbnbn": 3660,
  "dbw": 3661,
  "dfA": 3662,
  "dgAm": 3663,
  "dgj": 3664,
  "dkA": 3665,
  "dnd": 3666,
  "dnw": 3667,
  "dpj": 3668,
  "dpt": 3669,
  "dpy": 3670,
  "drj": 3671,
  "drjw": 3672,
  "drr": 3673,
  "dwdy": 3674,
  "fay": 3675,
  "fdqA": 3676,
  "ff": 3677,
  "fgn": 3678,
  "fqAw": 3679,
  "fs": 3680,
  "fss": 3681,
  "gAHsj": 3682,
  "gAf": 3683,
  "gAgA": 3684,
  "gAj": 3685,
  "gAp": 3686,
  "gbtjw": 3687,
  "gott": 3688,
  "gsy": 3689,
  "gwf": 3690,
  "hAbj": 3691,
  "hAbq": 3692,
  "hAbu": 3693,
  "hAf": 3694,
  "hAqA": 3695,
  "hArp": 3696,
  "hhy": 3697,
  "hjp": 3698,
  "hmT": 3699,
  "hmh": 3700,
  "hnd": 3701,
  "hnq": 3702,
  "hpnn": 3703,
  "hq": 3704,
  "htA": 3705,
  "htpw": 3706,
  "hwi": 3707,
  "hwv": 3708,
  "jAD": 3709,
  "jAH": 3710,
  "jAnr": 3711,
  "jArj": 3712,
  "jArw": 3713,
  "jAtjw": 3714,
  "jAtt": 3715,
  "jAwy": 3716,
  "jAxw": 3717,
  "jAz": 3718,
  "jHa": 3719,
  "jHm": 3720,
  "jSrw": 3721,
  "jSt": 3722,
  "jTmw": 3723,
  "jTy": 3724,
  "jaanj": 3725,
  "janj": 3726,
  "janw": 3727,
  "jay": 3728,
  "jbjw": 3729,
  "jbkA": 3730,
  "jbx": 3731,
  "jdAt": 3732,
  "jdd": 3733,
  "jdmj": 3734,
  "jdnw": 3735,
  "jdt": 3736,
  "jdx": 3737,
  "jfdi": 3738,
  "jfn": 3739,
  "jft": 3740,
  "jg": 3741,
  "jhAb": 3742,
  "jhAm": 3743,
  "jhhy": 3744,
  "jkA": 3745,
  "jki": 3746,
  "jknw": 3747,
  "jmAw": 3748,
  "jmHj": 3749,
  "jmS": 3750,
  "jmby": 3751,
  "jmjm": 3752,
  "jnA": 3753,
  "jnDw": 3754,
  "jnHw": 3755,
  "jnbA": 3756,
  "jnbw": 3757,
  "jnnt": 3758,
  "jnsj": 3759,
  "jntnt": 3760,
  "jntw": 3761,
  "jpA": 3762,
  "jpATj": 3763,
  "jpwj": 3764,
  "jqH": 3765,
  "jqh": 3766,
  "jqm": 3767,
  "jrjt": 3768,
  "jsTwy": 3769,
  "jsfj": 3770,
  "jsfy": 3771,
  "jstn": 3772,
  "jswt": 3773,
  "jtHw": 3774,
  "jtjtj": 3775,
  "jtx": 3776,
  "jwAw": 3777,
  "jwSS": 3778,
  "jwbw": 3779,
  "jwdj": 3780,
  "jwdw": 3781,
  "jwgr": 3782,
  "jwnry": 3783,
  "jwp": 3784,
  "jwpl": 3785,
  "jwrw": 3786,
  "jwtjw": 3787,
  "jxma": 3788,
  "jxy": 3789,
  "jzt": 3790,
  "kAf": 3791,
  "kAjry": 3792,
  "kAwt": 3793,
  "kH": 3794,
  "kHss": 3795,
  "kSw": 3796,
  "kaf": 3797,
  "kfAy": 3798,
  "kft": 3799,
  "khAbw": 3800,
  "kjA": 3801,
  "kkj": 3802,
  "kmj": 3803,
  "kmkm": 3804,
  "kmm": 3805,
  "kmt": 3806,
  "kmw": 3807,
  "kmwj": 3808,
  "knan": 3809,
  "knmm": 3810,
  "kpnj": 3811,
  "kzi": 3812,
  "mAHj": 3813,
  "mATA": 3814,
  "mAaw": 3815,
  "mAtjr": 3816,
  "mAwA": 3817,
  "mDAy": 3818,
  "mDt": 3819,
  "mDwj": 3820,
  "mHs": 3821,
  "mSaq": 3822,
  "mXA": 3823,
  "maAa": 3824,
  "maDA": 3825,
  "mab": 3826,
  "mabAy": 3827,
  "mads": 3828,
  "maj": 3829,
  "mand": 3830,
  "may": 3831,
  "mb": 3832,
  "mby": 3833,
  "mdt": 3834,
  "mf": 3835,
  "mfAk": 3836,
  "mgg": 3837,
  "mgs": 3838,
  "mhAwt": 3839,
  "mhj": 3840,
  "mjAz": 3841,
  "mjb": 3842,
  "mjm": 3843,
  "mjnn": 3844,
  "mjy": 3845,
  "mkk": 3846,
  "mkrjw": 3847,
  "mks": 3848,
  "mnDr": 3849,
  "mnTA": 3850,
  "mndyw": 3851,
  "mnhD": 3852,
  "mnsA": 3853,
  "mntst": 3854,
  "mnttn": 3855,
  "mqj": 3856,
  "mrS": 3857,
  "mryt": 3858,
  "msS": 3859,
  "msSA": 3860,
  "mshrt": 3861,
  "msjw": 3862,
  "mskj": 3863,
  "mstt": 3864,
  "msx": 3865,
  "msxA": 3866,
  "mtf": 3867,
  "mtmt": 3868,
  "mtrwy": 3869,
  "mtrx": 3870,
  "mttj": 3871,
  "mxAy": 3872,
  "mxnti": 3873,
  "mxntj": 3874,
  "myt": 3875,
  "nAp": 3876,
  "nDH": 3877,
  "nDd": 3878,
  "nDj": 3879,
  "nDmm": 3880,
  "nDmw": 3881,
  "nDrj": 3882,
  "nHj": 3883,
  "nHni": 3884,
  "nHsi": 3885,
  "nHsy": 3886,
  "nHtm": 3887,
  "nSS": 3888,
  "nSbSb": 3889,
  "nSf": 3890,
  "nSj": 3891,
  "nSnS": 3892,
  "nSnn": 3893,
  "nSp": 3894,
  "nSy": 3895,
  "nSz": 3896,
  "nTT": 3897,
  "nTb": 3898,
  "nTn": 3899,
  "nTrw": 3900,
  "nXX": 3901,
  "nag": 3902,
  "naj": 3903,
  "ndbdb": 3904,
  "ndm": 3905,
  "ndw": 3906,
  "nfaj": 3907,
  "nfry": 3908,
  "ngng": 3909,
  "ngsgs": 3910,
  "nhAj": 3911,
  "nhAjs": 3912,
  "nhAy": 3913,
  "nhdh": 3914,
  "nhdhd": 3915,
  "nhjs": 3916,
  "nhq": 3917,
  "njAj": 3918,
  "njAw": 3919,
  "nkA": 3920,
  "nkAkA": 3921,
  "nkjw": 3922,
  "nmmj": 3923,
  "nnn": 3924,
  "npApA": 3925,
  "npi": 3926,
  "npn": 3927,
  "nprj": 3928,
  "npt": 3929,
  "nqw": 3930,
  "nrAw": 3931,
  "nsA": 3932,
  "nsns": 3933,
  "ntA": 3934,
  "ntbw": 3935,
  "ntrw": 3936,
  "nwHH": 3937,
  "nwtwt": 3938,
  "nxbw": 3939,
  "nxi": 3940,
  "nxnx": 3941,
  "nzA": 3942,
  "pAar": 3943,
  "pAwa": 3944,
  "pAxd": 3945,
  "pDpD": 3946,
  "pHd": 3947,
  "pHtj": 3948,
  "pHww": 3949,
  "pSs": 3950,
  "pT": 3951,
  "pXrw": 3952,
  "pat": 3953,
  "pfAw": 3954,
  "pfss": 3955,
  "ph": 3956,
  "pjAy": 3957,
  "pjp": 3958,
  "pnj": 3959,
  "ppw": 3960,
  "psDj": 3961,
  "pst": 3962,
  "pwgA": 3963,
  "pwjw": 3964,
  "pwrm": 3965,
  "pzf": 3966,
  "qAmy": 3967,
  "qbHw": 3968,
  "qbsw": 3969,
  "qby": 3970,
  "qfdr": 3971,
  "qmAw": 3972,
  "qrjaw": 3973,
  "qrjw": 3974,
  "qtm": 3975,
  "qwqw": 3976,
  "qy": 3977,
  "rDt": 3978,
  "rHb": 3979,
  "rSS": 3980,
  "rSpw": 3981,
  "rSwj": 3982,
  "rSy": 3983,
  "ray": 3984,
  "rdHw": 3985,
  "rfr": 3986,
  "rg": 3987,
  "rh": 3988,
  "rhb": 3989,
  "rhj": 3990,
  "rjA": 3991,
  "rjrj": 3992,
  "rjw": 3993,
  "rjwm": 3994,
  "rkjw": 3995,
  "rkrk": 3996,
  "rmnj": 3997,
  "rmrm": 3998,
  "rnpt": 3999,
  "rnpwt": 4000,
  "rpj": 4001,
  "rqrq": 4002,
  "rsf": 4003,
  "rsi": 4004,
  "rssy": 4005,
  "rsu": 4006,
  "rsy": 4007,
  "rwhAwj": 4008,
  "rwjAj": 4009,
  "rwn": 4010,
  "rwr": 4011,
  "rwrw": 4012,
  "rxtj": 4013,
  "sAdd": 4014,
  "sAj": 4015,
  "sAkA": 4016,
  "sAn": 4017,
  "sAp": 4018,
  "sAqH": 4019,
  "sAry": 4020,
  "sAwt": 4021,
  "sAww": 4022,
  "sDmj": 4023,
  "sDsr": 4024,
  "sDt": 4025,
  "sHAb": 4026,
  "sHH": 4027,
  "sHai": 4028,
  "sHjH": 4029,
  "sHq": 4030,
  "sHwA": 4031,
  "sHwj": 4032,
  "sSsAw": 4033,
  "sSw": 4034,
  "sTAw": 4035,
  "sTf": 4036,
  "sTnn": 4037,
  "sTr": 4038,
  "sXAw": 4039,
  "sXk": 4040,
  "sXn": 4041,
  "sXt": 4042,
  "saa": 4043,
  "sabA": 4044,
  "san": 4045,
  "saqA": 4046,
  "sart": 4047,
  "sasa": 4048,
  "sax": 4049,
  "sbAw": 4050,
  "sbb": 4051,
  "sbd": 4052,
  "sbdS": 4053,
  "sbg": 4054,
  "sbjAt": 4055,
  "sbjn": 4056,
  "sbtt": 4057,
  "sbw": 4058,
  "sdbj": 4059,
  "sdf": 4060,
  "sdn": 4061,
  "sdnm": 4062,
  "sfi": 4063,
  "sfw": 4064,
  "sgAb": 4065,
  "sgAp": 4066,
  "sgrg": 4067,
  "shAd": 4068,
  "sjArr": 4069,
  "sjAw": 4070,
  "sjdi": 4071,
  "sjq": 4072,
  "sjsj": 4073,
  "skAw": 4074,
  "skmyt": 4075,
  "sksn": 4076,
  "sktj": 4077,
  "smAj": 4078,
  "smAjr": 4079,
  "smAmw": 4080,
  "smAw": 4081,
  "smnn": 4082,
  "smtmt": 4083,
  "snHw": 4084,
  "snfi": 4085,
  "snh": 4086,
  "snhd": 4087,
  "snhp": 4088,
  "snhsi": 4089,
  "snjhA": 4090,
  "snjt": 4091,
  "snjw": 4092,
  "snni": 4093,
  "snr": 4094,
  "snxbxb": 4095,
  "snxn": 4096,
  "spHt": 4097,
  "spS": 4098,
  "spna": 4099,
  "spri": 4100,
  "sqA": 4101,
  "sqfn": 4102,
  "srDy": 4103,
  "srwjj": 4104,
  "ssDm": 4105,
  "ssH": 4106,
  "ssbj": 4107,
  "sswrj": 4108,
  "stjw": 4109,
  "stk": 4110,
  "stpp": 4111,
  "stwA": 4112,
  "swAww": 4113,
  "swHw": 4114,
  "swSr": 4115,
  "swhi": 4116,
  "swjA": 4117,
  "swjb": 4118,
  "swnw": 4119,
  "swrH": 4120,
  "sxbxb": 4121,
  "sxnn": 4122,
  "sxwz": 4123,
  "syf": 4124,
  "syfy": 4125,
  "szA": 4126,
  "szwn": 4127,
  "tAHn": 4128,
  "tATnn": 4129,
  "tAr": 4130,
  "tSjw": 4131,
  "tbtb": 4132,
  "tby": 4133,
  "tfj": 4134,
  "tgA": 4135,
  "thAj": 4136,
  "thb": 4137,
  "thh": 4138,
  "tjnr": 4139,
  "tjsw": 4140,
  "tjtw": 4141,
  "tkkj": 4142,
  "tks": 4143,
  "tktk": 4144,
  "tmH": 4145,
  "tmtm": 4146,
  "tmw": 4147,
  "tmy": 4148,
  "tnTA": 4149,
  "tndu": 4150,
  "tntm": 4151,
  "tpr": 4152,
  "trw": 4153,
  "ttw": 4154,
  "twh": 4155,
  "twj": 4156,
  "twjA": 4157,
  "twtn": 4158,
  "txy": 4159,
  "wADj": 4160,
  "wAHj": 4161,
  "wAT": 4162,
  "wAd": 4163,
  "wAj": 4164,
  "wAsm": 4165,
  "wDAj": 4166,
  "wDHj": 4167,
  "wDHw": 4168,
  "wDbw": 4169,
  "wDt": 4170,
  "wDw": 4171,
  "wSi": 4172,
  "wTn": 4173,
  "wabw": 4174,
  "wafw": 4175,
  "wbD": 4176,
  "wbnw": 4177,
  "wbt": 4178,
  "wgAgg": 4179,
  "wgm": 4180,
  "wgp": 4181,
  "whAs": 4182,
  "whAsj": 4183,
  "wjw": 4184,
  "wnT": 4185,
  "wnTr": 4186,
  "wns": 4187,
  "wpd": 4188,
  "wpy": 4189,
  "wrdw": 4190,
  "wstnj": 4191,
  "wtr": 4192,
  "wtwt": 4193,
  "wz": 4194,
  "wzT": 4195,
  "wzf": 4196,
  "wzm": 4197,
  "xAbw": 4198,
  "xAmm": 4199,
  "xAz": 4200,
  "xarw": 4201,
  "xbt": 4202,
  "xbz": 4203,
  "xfd": 4204,
  "xmj": 4205,
  "xmny": 4206,
  "xnfy": 4207,
  "xnmsw": 4208,
  "xnpj": 4209,
  "xnwt": 4210,
  "xpj": 4211,
  "xpt": 4212,
  "xpwS": 4213,
  "xrd": 4214,
  "xrr": 4215,
  "xsAy": 4216,
  "xsdD": 4217,
  "xwn": 4218,
  "xxm": 4219,
  "yHj": 4220,
  "ya": 4221,
  "yj": 4222,
  "yrmt": 4223,
  "ytpl": 4224,
  "ytw": 4225,
  "ywpl": 4226,
  "yy": 4227,
  "zHzH": 4228,
  "zXi": 4229,
  "zXr": 4230,
  "zbw": 4231,
  "zkzk": 4232,
  "zmnnw": 4233,
  "znq": 4234,
  "zpj": 4235,
  "zpw": 4236,
  "ztjw": 4237,
  "zty": 4238,
  "zwnu": 4239,
  "zwnw": 4240,
  "zwrj": 4241,
  "zwzw": 4242,
  "zxr": 4243,
  "zxzx": 4244,
  "ADw": 4245,
  "AHAHj": 4246,
  "ASb": 4247,
  "ASjH": 4248,
  "ASn": 4249,
  "ASrt": 4250,
  "ATA": 4251,
  "ATj": 4252,
  "AX": 4253,
  "AXp": 4254,
  "Aaab": 4255,
  "Aaaj": 4256,
  "AaanA": 4257,
  "Aaany": 4258,
  "Aaf": 4259,
  "Abdj": 4260,
  "Abdww": 4261,
  "Abt": 4262,
  "Abwy": 4263,
  "Abxx": 4264,
  "Add": 4265,
  "Adf": 4266,
  "Adm": 4267,
  "Adp": 4268,
  "Afj": 4269,
  "Afr": 4270,
  "Aft": 4271,
  "Afy": 4272,
  "AgAp": 4273,
  "Agbgb": 4274,
  "Agsw": 4275,
  "AhAm": 4276,
  "Ahb": 4277,
  "Ahm": 4278,
  "Ahw": 4279,
  "Ahwt": 4280,
  "Ajj": 4281,
  "Ajrr": 4282,
  "AjwAj": 4283,
  "AkAj": 4284,
  "Aky": 4285,
  "Amaw": 4286,
  "AmjA": 4287,
  "Amsw": 4288,
  "Anr": 4289,
  "Any": 4290,
  "ApH": 4291,
  "Ark": 4292,
  "Arktkstk": 4293,
  "Arr": 4294,
  "Arw": 4295,
  "Ary": 4296,
  "Ati": 4297,
  "Atjwt": 4298,
  "Atpw": 4299,
  "Atwtw": 4300,
  "Au": 4301,
  "AwAr": 4302,
  "AwAw": 4303,
  "Awjt": 4304,
  "Awmw": 4305,
  "Awy": 4306,
  "Axf": 4307,
  "Axx": 4308,
  "Axy": 4309,
  "Ayw": 4310,
  "Azb": 4311,
  "DAH": 4312,
  "DAa": 4313,
  "DAbH": 4314,
  "DAbqbq": 4315,
  "DAhA": 4316,
  "DAhAy": 4317,
  "DAhj": 4318,
  "DAhy": 4319,
  "DAmAa": 4320,
  "DAma": 4321,
  "DApr": 4322,
  "DArA": 4323,
  "DArj": 4324,
  "DAssw": 4325,
  "DAtj": 4326,
  "DAty": 4327,
  "DAyj": 4328,
  "DHwti": 4329,
  "DSr": 4330,
  "DaDa": 4331,
  "Daaj": 4332,
  "Damw": 4333,
  "Darj": 4334,
  "Datt": 4335,
  "DbAj": 4336,
  "DbDb": 4337,
  "Dbt": 4338,
  "Dbwj": 4339,
  "DdDd": 4340,
  "DdHw": 4341,
  "Dddi": 4342,
  "DddnnA": 4343,
  "Ddfy": 4344,
  "Ddk": 4345,
  "Ddtj": 4346,
  "Ddtw": 4347,
  "Ddv": 4348,
  "Dfa": 4349,
  "Dfj": 4350,
  "Dfy": 4351,
  "Dhw": 4352,
  "Djw": 4353,
  "Dmj": 4354,
  "Dmtn": 4355,
  "DnD": 4356,
  "Dnb": 4357,
  "Dnm": 4358,
  "Dns": 4359,
  "Dprtj": 4360,
  "DrDry": 4361,
  "Drf": 4362,
  "DrjDr": 4363,
  "Drn": 4364,
  "Dsjw": 4365,
  "Dsnw": 4366,
  "Dsrj": 4367,
  "Dswj": 4368,
  "Dtf": 4369,
  "Dwjwj": 4370,
  "Dws": 4371,
  "Dwy": 4372,
  "Dxn": 4373,
  "Dzf": 4374,
  "HAD": 4375,
  "HAHA": 4376,
  "HAaa": 4377,
  "HAbi": 4378,
  "HAbt": 4379,
  "HAdg": 4380,
  "HAdi": 4381,
  "HAfy": 4382,
  "HAg": 4383,
  "HAgj": 4384,
  "HAk": 4385,
  "HAmw": 4386,
  "HApj": 4387,
  "HApp": 4388,
  "HAqAj": 4389,
  "HArr": 4390,
  "HAswsn": 4391,
  "HAty": 4392,
  "HAwt": 4393,
  "HAywj": 4394,
  "HDDw": 4395,
  "HDDwj": 4396,
  "HDtj": 4397,
  "HHtjtjsw": 4398,
  "HHw": 4399,
  "HTr": 4400,
  "HTt": 4401,
  "HaAw": 4402,
  "Haawy": 4403,
  "Harw": 4404,
  "Hawjy": 4405,
  "HbAbA": 4406,
  "HbD": 4407,
  "HbH": 4408,
  "Hbd": 4409,
  "Hbnnwt": 4410,
  "Hbsj": 4411,
  "Hbsy": 4412,
  "Hddy": 4413,
  "Hdj": 4414,
  "Hdq": 4415,
  "Hdt": 4416,
  "HfAw": 4417,
  "HjH": 4418,
  "Hjfg": 4419,
  "Hjjj": 4420,
  "Hjkn": 4421,
  "Hjm": 4422,
  "Hjpy": 4423,
  "Hjtjw": 4424,
  "Hjw": 4425,
  "Hkk": 4426,
  "HknH": 4427,
  "Hknj": 4428,
  "Hknkn": 4429,
  "Hkwn": 4430,
  "HmATT": 4431,
  "HmAmw": 4432,
  "HmAmy": 4433,
  "HmHm": 4434,
  "Hma": 4435,
  "Hmaw": 4436,
  "Hmgj": 4437,
  "Hmk": 4438,
  "Hmsj": 4439,
  "Hmtjw": 4440,
  "Hmwt": 4441,
  "HnH": 4442,
  "HnTj": 4443,
  "Hngj": 4444,
  "Hnnks": 4445,
  "Hnnksty": 4446,
  "Hnny": 4447,
  "Hnp": 4448,
  "Hnty": 4449,
  "HnwH": 4450,
  "Hnwt": 4451,
  "Hnwtj": 4452,
  "Hnytj": 4453,
  "HpHp": 4454,
  "Hpa": 4455,
  "Hpapa": 4456,
  "Hpn": 4457,
  "Hpp": 4458,
  "HqAt": 4459,
  "Hqrj": 4460,
  "Hqrjw": 4461,
  "HrTs": 4462,
  "Hrbs": 4463,
  "HrpgkSrSb": 4464,
  "Hrpl": 4465,
  "Hrrj": 4466,
  "Hrrwt": 4467,
  "Hrst": 4468,
  "Hrwr": 4469,
  "Hsbd": 4470,
  "Hsbp": 4471,
  "Hsbw": 4472,
  "Hsm": 4473,
  "Hsqq": 4474,
  "Hswt": 4475,
  "Hswy": 4476,
  "HtAy": 4477,
  "Htptj": 4478,
  "Htpwt": 4479,
  "HwAHwA": 4480,
  "Hwnj": 4481,
  "Hwry": 4482,
  "Hws": 4483,
  "HwtA": 4484,
  "Hwywy": 4485,
  "Hzjj": 4486,
  "Hzk": 4487,
  "Hzmny": 4488,
  "Hzr": 4489,
  "On": 4490,
  "SAAw": 4491,
  "SASAa": 4492,
  "SAbdy": 4493,
  "SAbwd": 4494,
  "SAdA": 4495,
  "SAk": 4496,
  "SAmst": 4497,
  "SAmw": 4498,
  "SAmy": 4499,
  "SAq": 4500,
  "SAqA": 4501,
  "SArS": 4502,
  "SAwAb": 4503,
  "SAwb": 4504,
  "SAyt": 4505,
  "SDm": 4506,
  "SDtm": 4507,
  "SSt": 4508,
  "STn": 4509,
  "SaA": 4510,
  "SaD": 4511,
  "SaT": 4512,
  "Safj": 4513,
  "Satj": 4514,
  "Sbd": 4515,
  "Sby": 4516,
  "SdHw": 4517,
  "Sdjw": 4518,
  "Sdt": 4519,
  "Sdty": 4520,
  "Sfi": 4521,
  "Sftw": 4522,
  "Shr": 4523,
  "Sjw": 4524,
  "Sk": 4525,
  "Sknsrhtw": 4526,
  "Skr": 4527,
  "Smat": 4528,
  "Smay": 4529,
  "Smd": 4530,
  "Smjw": 4531,
  "Smmy": 4532,
  "Smr": 4533,
  "Smt": 4534,
  "Smyk": 4535,
  "SnDd": 4536,
  "SnS": 4537,
  "Snaa": 4538,
  "Snat": 4539,
  "Snaw": 4540,
  "Snjs": 4541,
  "Snsw": 4542,
  "Snwtj": 4543,
  "Snwy": 4544,
  "SpA": 4545,
  "SpT": 4546,
  "Spi": 4547,
  "Spsjt": 4548,
  "Spsy": 4549,
  "Sptj": 4550,
  "Spv": 4551,
  "Spy": 4552,
  "SrSr": 4553,
  "SrStkt": 4554,
  "Srd": 4555,
  "Srgt": 4556,
  "Srm": 4557,
  "Sry": 4558,
  "SsdA": 4559,
  "StAdj": 4560,
  "StAi": 4561,
  "StSt": 4562,
  "Stbw": 4563,
  "Stt": 4564,
  "SwAw": 4565,
  "SwAww": 4566,
  "Swbw": 4567,
  "Sws": 4568,
  "Swt": 4569,
  "Swwy": 4570,
  "Swyt": 4571,
  "Sxpi": 4572,
  "Szr": 4573,
  "TAA": 4574,
  "TATA": 4575,
  "TAhmw": 4576,
  "TAnj": 4577,
  "TArj": 4578,
  "TArw": 4579,
  "TAtjw": 4580,
  "TAtn": 4581,
  "TAwt": 4582,
  "TAwy": 4583,
  "TAzj": 4584,
  "THHwt": 4585,
  "THs": 4586,
  "THsb": 4587,
  "TbTb": 4588,
  "Tbb": 4589,
  "Tbhn": 4590,
  "Tby": 4591,
  "Tfjdn": 4592,
  "Tfjw": 4593,
  "Tfrr": 4594,
  "Tftn": 4595,
  "Thb": 4596,
  "Thi": 4597,
  "Thm": 4598,
  "Thn": 4599,
  "Thnw": 4600,
  "Thw": 4601,
  "TjAtj": 4602,
  "Tjrf": 4603,
  "Tjw": 4604,
  "Tkm": 4605,
  "Tkn": 4606,
  "TknS": 4607,
  "TmAm": 4608,
  "TmTj": 4609,
  "Tmj": 4610,
  "TmpAw": 4611,
  "Tmss": 4612,
  "Tmt": 4613,
  "TnA": 4614,
  "TnHr": 4615,
  "TnTA": 4616,
  "Tnh": 4617,
  "Tnnj": 4618,
  "Tnnt": 4619,
  "Tntm": 4620,
  "Tnu": 4621,
  "TpHw": 4622,
  "Tpnpn": 4623,
  "Tpw": 4624,
  "Trjwy": 4625,
  "Trr": 4626,
  "Trry": 4627,
  "Trt": 4628,
  "Tsb": 4629,
  "Tstj": 4630,
  "Ttwj": 4631,
  "Ttwtj": 4632,
  "TwTkn": 4633,
  "Twf": 4634,
  "Twj": 4635,
  "TwjA": 4636,
  "Twrj": 4637,
  "Twynn": 4638,
  "Tyw": 4639,
  "TzTz": 4640,
  "Verb": 4641,
  "XAXA": 4642,
  "XAbb": 4643,
  "XAi": 4644,
  "XArw": 4645,
  "XAwj": 4646,
  "XT": 4647,
  "XaA": 4648,
  "Xajw": 4649,
  "Xar": 4650,
  "XawAy": 4651,
  "Xbt": 4652,
  "Xdi": 4653,
  "Xi": 4654,
  "Xk": 4655,
  "Xma": 4656,
  "Xmm": 4657,
  "Xmn": 4658,
  "XnX": 4659,
  "Xnmw": 4660,
  "Xnnj": 4661,
  "Xnwj": 4662,
  "Xnwnn": 4663,
  "XpAw": 4664,
  "Xpj": 4665,
  "Xpn": 4666,
  "Xrdw": 4667,
  "Xrp": 4668,
  "Xrr": 4669,
  "XsAj": 4670,
  "XsAw": 4671,
  "Xsr": 4672,
  "aAd": 4673,
  "aAf": 4674,
  "aAgA": 4675,
  "aAgAs": 4676,
  "aAgAsw": 4677,
  "aAgsw": 4678,
  "aAh": 4679,
  "aAmj": 4680,
  "aAmw": 4681,
  "aDdw": 4682,
  "aDj": 4683,
  "aDw": 4684,
  "aHAwtj": 4685,
  "aHai": 4686,
  "aHar": 4687,
  "aHb": 4688,
  "aHi": 4689,
  "aHm": 4690,
  "aSAw": 4691,
  "aSaS": 4692,
  "aSi": 4693,
  "aSjw": 4694,
  "aSqj": 4695,
  "aXb": 4696,
  "aXnw": 4697,
  "aXy": 4698,
  "aab": 4699,
  "aafi": 4700,
  "aam": 4701,
  "abXbX": 4702,
  "abnx": 4703,
  "add": 4704,
  "afAj": 4705,
  "afAw": 4706,
  "afAy": 4707,
  "afa": 4708,
  "agn": 4709,
  "agnj": 4710,
  "ahr": 4711,
  "ajw": 4712,
  "amAmw": 4713,
  "amaA": 4714,
  "amj": 4715,
  "amjA": 4716,
  "amt": 4717,
  "amw": 4718,
  "amy": 4719,
  "anH": 4720,
  "anTj": 4721,
  "ana": 4722,
  "ananxj": 4723,
  "anay": 4724,
  "anb": 4725,
  "anbr": 4726,
  "anbw": 4727,
  "andw": 4728,
  "ankkw": 4729,
  "annt": 4730,
  "antw": 4731,
  "anwnA": 4732,
  "anws": 4733,
  "anxy": 4734,
  "any": 4735,
  "apap": 4736,
  "aqAA": 4737,
  "aqAy": 4738,
  "aqa": 4739,
  "aqn": 4740,
  "aqwj": 4741,
  "aqy": 4742,
  "arfj": 4743,
  "ast": 4744,
  "atj": 4745,
  "atrf": 4746,
  "atxww": 4747,
  "awAw": 4748,
  "awa": 4749,
  "awnw": 4750,
  "awt": 4751,
  "awtj": 4752,
  "axAy": 4753,
  "axmt": 4754,
  "axnj": 4755,
  "axtwy": 4756,
  "axxA": 4757,
  "az": 4758,
  "aztrt": 4759,
  "bAbAw": 4760,
  "bAbAy": 4761,
  "bAbwj": 4762,
  "bAgAy": 4763,
  "bAgsw": 4764,
  "bAjAwk": 4765,
  "bAkjwj": 4766,
  "bAndw": 4767,
  "bAnn": 4768,
  "bArs": 4769,
  "bAtA": 4770,
  "bAxn": 4771,
  "bDAw": 4772,
  "bDn": 4773,
  "bHH": 4774,
  "bHsw": 4775,
  "bHt": 4776,
  "bHw": 4777,
  "bSb": 4778,
  "bSj": 4779,
  "bStj": 4780,
  "bSw": 4781,
  "bTw": 4782,
  "baHt": 4783,
  "baTn": 4784,
  "bart": 4785,
  "batn": 4786,
  "bax": 4787,
  "bbn": 4788,
  "bdH": 4789,
  "bdbd": 4790,
  "bdj": 4791,
  "bdydy": 4792,
  "bfn": 4793,
  "bgAy": 4794,
  "bgz": 4795,
  "bhks": 4796,
  "bhnj": 4797,
  "bjAbA": 4798,
  "bjTtw": 4799,
  "bjTw": 4800,
  "bjb": 4801,
  "bjdj": 4802,
  "bjj": 4803,
  "bjnrj": 4804,
  "bjnw": 4805,
  "bjr": 4806,
  "bjtt": 4807,
  "bjw": 4808,
  "bjwn": 4809,
  "bkAw": 4810,
  "bkk": 4811,
  "bkn": 4812,
  "bnDy": 4813,
  "bnana": 4814,
  "bngA": 4815,
  "bnjA": 4816,
  "bnjw": 4817,
  "bnnt": 4818,
  "bnrnj": 4819,
  "bpA": 4820,
  "bqA": 4821,
  "bqbq": 4822,
  "brj": 4823,
  "brktTw": 4824,
  "brwt": 4825,
  "bsA": 4826,
  "btk": 4827,
  "btktk": 4828,
  "btq": 4829,
  "btw": 4830,
  "bty": 4831,
  "bwAw": 4832,
  "bwAy": 4833,
  "bwSA": 4834,
  "bwSi": 4835,
  "bwbw": 4836,
  "bwp": 4837,
  "bwpwy": 4838,
  "bxb": 4839,
  "bxnw": 4840,
  "cke": 4841,
  "dAdAjw": 4842,
  "dAng": 4843,
  "dAp": 4844,
  "dD": 4845,
  "dDhDw": 4846,
  "dHAj": 4847,
  "dHAwj": 4848,
  "dHAy": 4849,
  "dHaHr": 4850,
  "dHrjw": 4851,
  "dHt": 4852,
  "dSrr": 4853,
  "dbd": 4854,
  "dbdj": 4855,
  "dbjw": 4856,
  "dbtj": 4857,
  "ddn": 4858,
  "ddy": 4859,
  "df": 4860,
  "dfD": 4861,
  "dfn": 4862,
  "dgAj": 4863,
  "dgAsA": 4864,
  "dgAsAj": 4865,
  "dgAys": 4866,
  "dgS": 4867,
  "dgg": 4868,
  "didi": 4869,
  "dij": 4870,
  "djb": 4871,
  "djf": 4872,
  "djn": 4873,
  "dkn": 4874,
  "dks": 4875,
  "dmAm": 4876,
  "dmdj": 4877,
  "dmdm": 4878,
  "dmjr": 4879,
  "dmm": 4880,
  "dmr": 4881,
  "dmt": 4882,
  "dmw": 4883,
  "dnD": 4884,
  "dnb": 4885,
  "dnjt": 4886,
  "dnp": 4887,
  "dnxnx": 4888,
  "dpwHw": 4889,
  "dqA": 4890,
  "dqa": 4891,
  "dqq": 4892,
  "dqw": 4893,
  "drdn": 4894,
  "drgy": 4895,
  "dri": 4896,
  "dryS": 4897,
  "dsr": 4898,
  "duj": 4899,
  "duw": 4900,
  "dwAww": 4901,
  "dwdw": 4902,
  "dwr": 4903,
  "dxj": 4904,
  "fAg": 4905,
  "fAk": 4906,
  "fD": 4907,
  "faA": 4908,
  "fdqdq": 4909,
  "fdtj": 4910,
  "fi": 4911,
  "fjw": 4912,
  "fkk": 4913,
  "fkw": 4914,
  "fky": 4915,
  "fm": 4916,
  "fndy": 4917,
  "fnf": 4918,
  "fngA": 4919,
  "fnwd": 4920,
  "fnwt": 4921,
  "fsw": 4922,
  "ftj": 4923,
  "fwt": 4924,
  "gAHsy": 4925,
  "gAHy": 4926,
  "gATA": 4927,
  "gAbgAb": 4928,
  "gAbgAy": 4929,
  "gAbsbs": 4930,
  "gAg": 4931,
  "gAgAwj": 4932,
  "gAi": 4933,
  "gAsf": 4934,
  "gAwA": 4935,
  "gAygA": 4936,
  "gD": 4937,
  "gaga": 4938,
  "gah": 4939,
  "gbbtw": 4940,
  "gbd": 4941,
  "gbj": 4942,
  "ggA": 4943,
  "ggwi": 4944,
  "gmHj": 4945,
  "gmHw": 4946,
  "gmy": 4947,
  "gnA": 4948,
  "gnHs": 4949,
  "gnb": 4950,
  "gnm": 4951,
  "gnnw": 4952,
  "grS": 4953,
  "grgj": 4954,
  "grm": 4955,
  "grr": 4956,
  "gry": 4957,
  "gsj": 4958,
  "gsm": 4959,
  "gsmt": 4960,
  "gsp": 4961,
  "gspw": 4962,
  "gsti": 4963,
  "gwS": 4964,
  "gwT": 4965,
  "hAbhAb": 4966,
  "hAbn": 4967,
  "hAbw": 4968,
  "hAdm": 4969,
  "hAkjr": 4970,
  "hAmty": 4971,
  "hAmw": 4972,
  "hAnn": 4973,
  "hAq": 4974,
  "hAqAhAgA": 4975,
  "hArpw": 4976,
  "hArpwy": 4977,
  "hAru": 4978,
  "hAtt": 4979,
  "hAwt": 4980,
  "hAwv": 4981,
  "hAwy": 4982,
  "hT": 4983,
  "hTt": 4984,
  "ha": 4985,
  "hapj": 4986,
  "hapy": 4987,
  "hbAq": 4988,
  "hbAy": 4989,
  "hbnn": 4990,
  "hbt": 4991,
  "hdd": 4992,
  "hdhd": 4993,
  "hdm": 4994,
  "hdp": 4995,
  "hftj": 4996,
  "hhb": 4997,
  "hjj": 4998,
  "hjms": 4999,
  "hjn": 5000,
  "hkA": 5001,
  "hkj": 5002,
  "hkr": 5003,
  "hmAA": 5004,
  "hnjt": 5005,
  "hnm": 5006,
  "hnt": 5007,
  "hnwy": 5008,
  "hpA": 5009,
  "hpnw": 5010,
  "hqs": 5011,
  "hrA": 5012,
  "hrj": 5013,
  "hrrm": 5014,
  "hrt": 5015,
  "hs": 5016,
  "hsh": 5017,
  "htht": 5018,
  "htp": 5019,
  "httj": 5020,
  "htw": 5021,
  "hwhy": 5022,
  "hwr": 5023,
  "iHy": 5024,
  "ib": 5025,
  "inb": 5026,
  "ip": 5027,
  "irA": 5028,
  "isj": 5029,
  "it": 5030,
  "iw": 5031,
  "jAHsj": 5032,
  "jATrn": 5033,
  "jAa": 5034,
  "jAbD": 5035,
  "jAby": 5036,
  "jAfAf": 5037,
  "jAhA": 5038,
  "jAhreszeit": 5039,
  "jAjrt": 5040,
  "jAmAm": 5041,
  "jAnrw": 5042,
  "jAp": 5043,
  "jArn": 5044,
  "jAsy": 5045,
  "jAtj": 5046,
  "jAtw": 5047,
  "jAxj": 5048,
  "jAxt": 5049,
  "jAxx": 5050,
  "jAyd": 5051,
  "jDi": 5052,
  "jDj": 5053,
  "jDrj": 5054,
  "jHTj": 5055,
  "jHdjy": 5056,
  "jHjj": 5057,
  "jHt": 5058,
  "jHyty": 5059,
  "jSfj": 5060,
  "jSj": 5061,
  "jSnn": 5062,
  "jSp": 5063,
  "jStA": 5064,
  "jStt": 5065,
  "jTAj": 5066,
  "jTAw": 5067,
  "jTf": 5068,
  "jTs": 5069,
  "jTwTw": 5070,
  "jaDm": 5071,
  "jaHw": 5072,
  "jaanjj": 5073,
  "jaawj": 5074,
  "jaf": 5075,
  "jarw": 5076,
  "jbAj": 5077,
  "jbHw": 5078,
  "jbSk": 5079,
  "jbhy": 5080,
  "jbpl": 5081,
  "jbs": 5082,
  "jbsqb": 5083,
  "jbt": 5084,
  "jdAm": 5085,
  "jdHw": 5086,
  "jddj": 5087,
  "jdjj": 5088,
  "jdnpl": 5089,
  "jdwt": 5090,
  "jfr": 5091,
  "jgAj": 5092,
  "jgAp": 5093,
  "jhb": 5094,
  "jhby": 5095,
  "jhhj": 5096,
  "jhmn": 5097,
  "jhmw": 5098,
  "jhpy": 5099,
  "jjr": 5100,
  "jkjjt": 5101,
  "jkjk": 5102,
  "jknS": 5103,
  "jkrT": 5104,
  "jkrjt": 5105,
  "jmAA": 5106,
  "jmAxt": 5107,
  "jmAxy": 5108,
  "jmAy": 5109,
  "jmDr": 5110,
  "jmHD": 5111,
  "jmHw": 5112,
  "jmTj": 5113,
  "jmar": 5114,
  "jmbjj": 5115,
  "jmbw": 5116,
  "jmjr": 5117,
  "jmjrrk": 5118,
  "jmjxnt": 5119,
  "jmmj": 5120,
  "jmms": 5121,
  "jmnH": 5122,
  "jmnj": 5123,
  "jmp": 5124,
  "jmskA": 5125,
  "jmtj": 5126,
  "jnHA": 5127,
  "jnHr": 5128,
  "jnbj": 5129,
  "jnby": 5130,
  "jnf": 5131,
  "jnhA": 5132,
  "jnhmnj": 5133,
  "jnit": 5134,
  "jnjn": 5135,
  "jnjwy": 5136,
  "jnki": 5137,
  "jnktt": 5138,
  "jnnm": 5139,
  "jnnw": 5140,
  "jnti": 5141,
  "jnwn": 5142,
  "jpHw": 5143,
  "jpSnn": 5144,
  "jptntj": 5145,
  "jptwt": 5146,
  "jpwy": 5147,
  "jqA": 5148,
  "jqAt": 5149,
  "jqrs": 5150,
  "jrAw": 5151,
  "jrHnn": 5152,
  "jrd": 5153,
  "jrhb": 5154,
  "jrir": 5155,
  "jrkrk": 5156,
  "jrmj": 5157,
  "jrn": 5158,
  "jrpw": 5159,
  "jrrpx": 5160,
  "jrrx": 5161,
  "jrs": 5162,
  "jrtA": 5163,
  "jrwtw": 5164,
  "jrwv": 5165,
  "jrx": 5166,
  "jryk": 5167,
  "jsA": 5168,
  "jsDd": 5169,
  "jsDn": 5170,
  "jsHmw": 5171,
  "jsS": 5172,
  "jsbA": 5173,
  "jsbj": 5174,
  "jsh": 5175,
  "jshA": 5176,
  "jshAb": 5177,
  "jsjsj": 5178,
  "jsjy": 5179,
  "jsm": 5180,
  "jsmA": 5181,
  "jsmr": 5182,
  "jspA": 5183,
  "jspw": 5184,
  "jsqA": 5185,
  "jssj": 5186,
  "jswA": 5187,
  "jsyf": 5188,
  "jtHwj": 5189,
  "jten": 5190,
  "jtf": 5191,
  "jtfA": 5192,
  "jtnw": 5193,
  "jttw": 5194,
  "jwAdj": 5195,
  "jwAj": 5196,
  "jwApT": 5197,
  "jwAy": 5198,
  "jwTw": 5199,
  "jwb": 5200,
  "jwdnb": 5201,
  "jwg": 5202,
  "jwh": 5203,
  "jwhA": 5204,
  "jwit": 5205,
  "jwkjw": 5206,
  "jwnwj": 5207,
  "jwpAt": 5208,
  "jwpT": 5209,
  "jwpj": 5210,
  "jwpy": 5211,
  "jwrj": 5212,
  "jwrr": 5213,
  "jwrrj": 5214,
  "jwsA": 5215,
  "jwsdn": 5216,
  "jwtw": 5217,
  "jxjx": 5218,
  "jxn": 5219,
  "jxnm": 5220,
  "jxrqyn": 5221,
  "jxssf": 5222,
  "jxw": 5223,
  "jyAy": 5224,
  "jyAyi": 5225,
  "jyH": 5226,
  "jyjj": 5227,
  "jzA": 5228,
  "jzs": 5229,
  "jzw": 5230,
  "jzwt": 5231,
  "kASy": 5232,
  "kAhA": 5233,
  "kAhAb": 5234,
  "kAhb": 5235,
  "kAhnj": 5236,
  "kAjA": 5237,
  "kAjr": 5238,
  "kAmw": 5239,
  "kAmy": 5240,
  "kAnw": 5241,
  "kAvy": 5242,
  "kAwtj": 5243,
  "kAwy": 5244,
  "kD": 5245,
  "kHb": 5246,
  "kSjw": 5247,
  "kSkS": 5248,
  "kSwj": 5249,
  "kTn": 5250,
  "ka": 5251,
  "kafw": 5252,
  "kaka": 5253,
  "kbb": 5254,
  "kbn": 5255,
  "kbnw": 5256,
  "kd": 5257,
  "kdu": 5258,
  "kfAt": 5259,
  "kfAwj": 5260,
  "kff": 5261,
  "kfj": 5262,
  "kfkfA": 5263,
  "kftjw": 5264,
  "khbw": 5265,
  "kjryk": 5266,
  "kjwy": 5267,
  "kki": 5268,
  "kkn": 5269,
  "kknm": 5270,
  "kkt": 5271,
  "kkwt": 5272,
  "kmAd": 5273,
  "kmH": 5274,
  "kmnw": 5275,
  "kmrj": 5276,
  "kmtw": 5277,
  "kni": 5278,
  "knk": 5279,
  "knkf": 5280,
  "knknm": 5281,
  "knr": 5282,
  "kpA": 5283,
  "kpn": 5284,
  "kpnA": 5285,
  "kpny": 5286,
  "krA": 5287,
  "krAStw": 5288,
  "krHt": 5289,
  "krp": 5290,
  "kry": 5291,
  "ksA": 5292,
  "ksnDm": 5293,
  "ksy": 5294,
  "ksyk": 5295,
  "ktktj": 5296,
  "kttA": 5297,
  "ktty": 5298,
  "ktxj": 5299,
  "kwi": 5300,
  "kwjw": 5301,
  "kwrSgt": 5302,
  "kwy": 5303,
  "kxnt": 5304,
  "kywy": 5305,
  "kzn": 5306,
  "l": 5307,
  "mAD": 5308,
  "mAHw": 5309,
  "mAX": 5310,
  "mAaq": 5311,
  "mAddwj": 5312,
  "mAjdy": 5313,
  "mAjs": 5314,
  "mAmw": 5315,
  "mAtw": 5316,
  "mAwt": 5317,
  "mAww": 5318,
  "mAwy": 5319,
  "mAxwt": 5320,
  "mAyw": 5321,
  "mAz": 5322,
  "mDAjw": 5323,
  "mDri": 5324,
  "mHDm": 5325,
  "mHH": 5326,
  "mHjw": 5327,
  "mHm": 5328,
  "mHnw": 5329,
  "mHny": 5330,
  "mHsHs": 5331,
  "mHtj": 5332,
  "mHtt": 5333,
  "mHv": 5334,
  "mHwy": 5335,
  "mSay": 5336,
  "mSdd": 5337,
  "mSnT": 5338,
  "mSp": 5339,
  "mSrA": 5340,
  "mTAi": 5341,
  "mTT": 5342,
  "mTnw": 5343,
  "mTpn": 5344,
  "mXAw": 5345,
  "mXdtj": 5346,
  "mXnw": 5347,
  "maAr": 5348,
  "maDAy": 5349,
  "maSa": 5350,
  "maSr": 5351,
  "maXAw": 5352,
  "maXr": 5353,
  "madn": 5354,
  "mahAw": 5355,
  "mahn": 5356,
  "mahwj": 5357,
  "mai": 5358,
  "majA": 5359,
  "makw": 5360,
  "mam": 5361,
  "mama": 5362,
  "mamjA": 5363,
  "man": 5364,
  "manA": 5365,
  "manfw": 5366,
  "mann": 5367,
  "manxjw": 5368,
  "marj": 5369,
  "marq": 5370,
  "mas": 5371,
  "masw": 5372,
  "mat": 5373,
  "maxA": 5374,
  "maxf": 5375,
  "mbA": 5376,
  "mbb": 5377,
  "mbj": 5378,
  "mdA": 5379,
  "mdAm": 5380,
  "mdHw": 5381,
  "mddw": 5382,
  "mdnw": 5383,
  "mdpl": 5384,
  "mdsy": 5385,
  "mg": 5386,
  "mgw": 5387,
  "mhA": 5388,
  "mhAd": 5389,
  "mhAj": 5390,
  "mhh": 5391,
  "mht": 5392,
  "mhwt": 5393,
  "mhy": 5394,
  "mjA": 5395,
  "mjaHa": 5396,
  "mjam": 5397,
  "mjdA": 5398,
  "mjk": 5399,
  "mjkA": 5400,
  "mjnAj": 5401,
  "mjnw": 5402,
  "mjnyw": 5403,
  "mjr": 5404,
  "mjtrw": 5405,
  "mjtt": 5406,
  "mjwH": 5407,
  "mjzt": 5408,
  "mkAH": 5409,
  "mkAtj": 5410,
  "mkHAy": 5411,
  "mkjw": 5412,
  "mkt": 5413,
  "mktr": 5414,
  "mmjt": 5415,
  "mmtj": 5416,
  "mmw": 5417,
  "mnDj": 5418,
  "mnHH": 5419,
  "mnHp": 5420,
  "mnSd": 5421,
  "mnTAm": 5422,
  "mnbt": 5423,
  "mndf": 5424,
  "mndjdj": 5425,
  "mndm": 5426,
  "mnfr": 5427,
  "mnh": 5428,
  "mnhp": 5429,
  "mnhsi": 5430,
  "mnk": 5431,
  "mnnw": 5432,
  "mnqw": 5433,
  "mnsjw": 5434,
  "mntwk": 5435,
  "mnty": 5436,
  "mntyw": 5437,
  "mnwH": 5438,
  "mnwr": 5439,
  "mnwt": 5440,
  "mnww": 5441,
  "mpa": 5442,
  "mq": 5443,
  "mqAHA": 5444,
  "mqn": 5445,
  "mqr": 5446,
  "mrHnn": 5447,
  "mrHrt": 5448,
  "mrd": 5449,
  "mrjj": 5450,
  "mrkb": 5451,
  "mrkbt": 5452,
  "mrm": 5453,
  "mrqt": 5454,
  "mrsw": 5455,
  "mrwH": 5456,
  "mrx": 5457,
  "msDm": 5458,
  "msDmw": 5459,
  "msTp": 5460,
  "msb": 5461,
  "msbb": 5462,
  "msdj": 5463,
  "msjn": 5464,
  "msms": 5465,
  "msnT": 5466,
  "msnb": 5467,
  "msntjw": 5468,
  "msr": 5469,
  "mstjw": 5470,
  "mstnw": 5471,
  "mstp": 5472,
  "mstwj": 5473,
  "mswt": 5474,
  "msxt": 5475,
  "msyw": 5476,
  "mtAw": 5477,
  "mtAy": 5478,
  "mti": 5479,
  "mtjw": 5480,
  "mtm": 5481,
  "mtrw": 5482,
  "mtt": 5483,
  "mwj": 5484,
  "mwnf": 5485,
  "mwv": 5486,
  "mxAjw": 5487,
  "mxj": 5488,
  "mxnm": 5489,
  "mxrw": 5490,
  "mxtm": 5491,
  "mxwj": 5492,
  "mzr": 5493,
  "nAHA": 5494,
  "nAHAj": 5495,
  "nAS": 5496,
  "nAb": 5497,
  "nAhA": 5498,
  "nAjrf": 5499,
  "nAjrrf": 5500,
  "nAr": 5501,
  "nArf": 5502,
  "nAtw": 5503,
  "nDHy": 5504,
  "nDa": 5505,
  "nDmj": 5506,
  "nDn": 5507,
  "nDry": 5508,
  "nDsj": 5509,
  "nDsw": 5510,
  "nDy": 5511,
  "nDz": 5512,
  "nHa": 5513,
  "nHbw": 5514,
  "nHnj": 5515,
  "nHrnHr": 5516,
  "nHt": 5517,
  "nHtA": 5518,
  "nHti": 5519,
  "nHy": 5520,
  "nSAw": 5521,
  "nSfSf": 5522,
  "nSjw": 5523,
  "nSzz": 5524,
  "nTHTH": 5525,
  "nTi": 5526,
  "nTs": 5527,
  "nTstn": 5528,
  "nTz": 5529,
  "nXa": 5530,
  "nXmH": 5531,
  "nXrXr": 5532,
  "nXs": 5533,
  "naAD": 5534,
  "naHr": 5535,
  "najw": 5536,
  "nara": 5537,
  "nayA": 5538,
  "naydj": 5539,
  "nbDbD": 5540,
  "nbHw": 5541,
  "nbdd": 5542,
  "nbdj": 5543,
  "nbdjw": 5544,
  "nbjw": 5545,
  "nbpl": 5546,
  "nbsbs": 5547,
  "nbtj": 5548,
  "nbwi": 5549,
  "nbyt": 5550,
  "ndby": 5551,
  "ndfdf": 5552,
  "ndr": 5553,
  "ndri": 5554,
  "ndsds": 5555,
  "nfd": 5556,
  "nfnfn": 5557,
  "nfrs": 5558,
  "nfrwys": 5559,
  "nfrwysw": 5560,
  "nfrydj": 5561,
  "nfw": 5562,
  "ngAb": 5563,
  "ngAjj": 5564,
  "ngb": 5565,
  "ngi": 5566,
  "ngy": 5567,
  "nhAA": 5568,
  "nhAp": 5569,
  "nhAsi": 5570,
  "nhAw": 5571,
  "nhn": 5572,
  "nhpw": 5573,
  "nhwnhw": 5574,
  "nhzj": 5575,
  "njDw": 5576,
  "njn": 5577,
  "njnkn": 5578,
  "njnkntkSr": 5579,
  "njpt": 5580,
  "njtjt": 5581,
  "njwj": 5582,
  "njwr": 5583,
  "njywbn": 5584,
  "nkAw": 5585,
  "nkj": 5586,
  "nktj": 5587,
  "nmaw": 5588,
  "nmja": 5589,
  "nmjt": 5590,
  "nmsy": 5591,
  "nmtA": 5592,
  "nmtAw": 5593,
  "nmtt": 5594,
  "nmy": 5595,
  "nngj": 5596,
  "nngt": 5597,
  "nnjw": 5598,
  "nnt": 5599,
  "npAt": 5600,
  "npD": 5601,
  "npd": 5602,
  "nqd": 5603,
  "nqjw": 5604,
  "nqp": 5605,
  "nqrqr": 5606,
  "nry": 5607,
  "nsAA": 5608,
  "nsbw": 5609,
  "nsq": 5610,
  "nsqbb": 5611,
  "nsrt": 5612,
  "nss": 5613,
  "nsty": 5614,
  "nswyt": 5615,
  "nsyw": 5616,
  "ntAj": 5617,
  "ntAsn": 5618,
  "ntTn": 5619,
  "nta": 5620,
  "ntfj": 5621,
  "ntfjw": 5622,
  "nti": 5623,
  "ntkrty": 5624,
  "ntn": 5625,
  "ntnw": 5626,
  "ntri": 5627,
  "ntwf": 5628,
  "ntwjw": 5629,
  "ntwr": 5630,
  "ntwt": 5631,
  "nu": 5632,
  "nvr": 5633,
  "nwa": 5634,
  "nwb": 5635,
  "nwjw": 5636,
  "nxf": 5637,
  "nxnj": 5638,
  "nxnm": 5639,
  "nxnw": 5640,
  "nxp": 5641,
  "nxr": 5642,
  "nxrxr": 5643,
  "nxta": 5644,
  "nxtw": 5645,
  "nxwf": 5646,
  "nxwj": 5647,
  "nxwy": 5648,
  "nxy": 5649,
  "nyw": 5650,
  "nzn": 5651,
  "pAfj": 5652,
  "pAgjs": 5653,
  "pAjs": 5654,
  "pAqr": 5655,
  "pAqt": 5656,
  "pAt": 5657,
  "pAvy": 5658,
  "pAwj": 5659,
  "pAwtjw": 5660,
  "pAwytj": 5661,
  "pAxAty": 5662,
  "pDD": 5663,
  "pDww": 5664,
  "pHn": 5665,
  "pHts": 5666,
  "pSks": 5667,
  "pSnj": 5668,
  "pTH": 5669,
  "pbx": 5670,
  "pdH": 5671,
  "pdd": 5672,
  "pgz": 5673,
  "pjA": 5674,
  "pjgAw": 5675,
  "pjs": 5676,
  "plj": 5677,
  "pln": 5678,
  "plv": 5679,
  "pnA": 5680,
  "pnana": 5681,
  "pndn": 5682,
  "pnqA": 5683,
  "pntn": 5684,
  "pny": 5685,
  "ppjj": 5686,
  "pqA": 5687,
  "pqj": 5688,
  "prA": 5689,
  "prT": 5690,
  "prTrsw": 5691,
  "praA": 5692,
  "prdtxy": 5693,
  "prhq": 5694,
  "prjs": 5695,
  "prrT": 5696,
  "prtm": 5697,
  "prwx": 5698,
  "prxj": 5699,
  "psHw": 5700,
  "psf": 5701,
  "psgA": 5702,
  "psj": 5703,
  "psjw": 5704,
  "psst": 5705,
  "pth": 5706,
  "ptjrA": 5707,
  "ptry": 5708,
  "pttj": 5709,
  "pwaa": 5710,
  "pwi": 5711,
  "pwtrj": 5712,
  "pxAd": 5713,
  "pxAjw": 5714,
  "pxpx": 5715,
  "pxr": 5716,
  "pxt": 5717,
  "pxy": 5718,
  "pzd": 5719,
  "pzgA": 5720,
  "qAHA": 5721,
  "qAbs": 5722,
  "qAhd": 5723,
  "qAjA": 5724,
  "qAm": 5725,
  "qAqAw": 5726,
  "qAss": 5727,
  "qAwr": 5728,
  "qH": 5729,
  "qHH": 5730,
  "qHj": 5731,
  "qHn": 5732,
  "qHqH": 5733,
  "qaA": 5734,
  "qaHj": 5735,
  "qaHw": 5736,
  "qai": 5737,
  "qaw": 5738,
  "qbA": 5739,
  "qba": 5740,
  "qbjw": 5741,
  "qbwH": 5742,
  "qdf": 5743,
  "qdfA": 5744,
  "qdqd": 5745,
  "qdr": 5746,
  "qdy": 5747,
  "qfAw": 5748,
  "qhwj": 5749,
  "qi": 5750,
  "qmAH": 5751,
  "qmAmw": 5752,
  "qmHw": 5753,
  "qmjA": 5754,
  "qmq": 5755,
  "qnbt": 5756,
  "qnbw": 5757,
  "qnnj": 5758,
  "qnq": 5759,
  "qnt": 5760,
  "qqA": 5761,
  "qqj": 5762,
  "qrD": 5763,
  "qrHt": 5764,
  "qrjA": 5765,
  "qrja": 5766,
  "qrq": 5767,
  "qrt": 5768,
  "qrw": 5769,
  "qtAj": 5770,
  "qtS": 5771,
  "qtqt": 5772,
  "qwHn": 5773,
  "rAHs": 5774,
  "rAjs": 5775,
  "rAsx": 5776,
  "rAy": 5777,
  "rDjnj": 5778,
  "rHr": 5779,
  "rSp": 5780,
  "rSwy": 5781,
  "rTm": 5782,
  "rTnw": 5783,
  "rTw": 5784,
  "ramrskny": 5785,
  "rat": 5786,
  "rau": 5787,
  "rb": 5788,
  "rbrt": 5789,
  "rbty": 5790,
  "rbw": 5791,
  "rby": 5792,
  "rdH": 5793,
  "rdwt": 5794,
  "rdy": 5795,
  "rhA": 5796,
  "rhAn": 5797,
  "rhm": 5798,
  "rhnj": 5799,
  "rhr": 5800,
  "rjd": 5801,
  "rjj": 5802,
  "rjwhA": 5803,
  "rjwy": 5804,
  "rkHy": 5805,
  "rki": 5806,
  "rksw": 5807,
  "rkty": 5808,
  "rmAmj": 5809,
  "rmj": 5810,
  "rmnn": 5811,
  "rmny": 5812,
  "rms": 5813,
  "rnT": 5814,
  "rnj": 5815,
  "rnmm": 5816,
  "rnpy": 5817,
  "rns": 5818,
  "rnw": 5819,
  "rnwy": 5820,
  "rpkt": 5821,
  "rprp": 5822,
  "rpt": 5823,
  "rqil": 5824,
  "rrAwj": 5825,
  "rrmw": 5826,
  "rrn": 5827,
  "rrwj": 5828,
  "rry": 5829,
  "rsfj": 5830,
  "rsfy": 5831,
  "rsn": 5832,
  "rss": 5833,
  "rssj": 5834,
  "rst": 5835,
  "rtjw": 5836,
  "rtsSk": 5837,
  "rv": 5838,
  "rwDt": 5839,
  "rwSA": 5840,
  "rwh": 5841,
  "rwjj": 5842,
  "rwjw": 5843,
  "rwx": 5844,
  "rxjt": 5845,
  "rxjw": 5846,
  "rxss": 5847,
  "rxw": 5848,
  "rxyw": 5849,
  "rxz": 5850,
  "rz": 5851,
  "sAAw": 5852,
  "sAHn": 5853,
  "sAXb": 5854,
  "sAXbw": 5855,
  "sAbs": 5856,
  "sAg": 5857,
  "sAgnn": 5858,
  "sAh": 5859,
  "sAjw": 5860,
  "sAk": 5861,
  "sAks": 5862,
  "sAmt": 5863,
  "sAnHm": 5864,
  "sAqA": 5865,
  "sAtj": 5866,
  "sAtw": 5867,
  "sAwty": 5868,
  "sAxAx": 5869,
  "sAxw": 5870,
  "sDAHy": 5871,
  "sDAm": 5872,
  "sDHw": 5873,
  "sDdi": 5874,
  "sDdj": 5875,
  "sDdm": 5876,
  "sDfAw": 5877,
  "sDrj": 5878,
  "sDwj": 5879,
  "sDwy": 5880,
  "sHAbi": 5881,
  "sHApw": 5882,
  "sHDn": 5883,
  "sHaw": 5884,
  "sHmm": 5885,
  "sHmy": 5886,
  "sHnn": 5887,
  "sHnw": 5888,
  "sHny": 5889,
  "sHpt": 5890,
  "sHs": 5891,
  "sSAj": 5892,
  "sSAw": 5893,
  "sSa": 5894,
  "sSdAw": 5895,
  "sSjsA": 5896,
  "sSnw": 5897,
  "sSpw": 5898,
  "sSrr": 5899,
  "sSrw": 5900,
  "sSsr": 5901,
  "sSwASwA": 5902,
  "sSy": 5903,
  "sSzp": 5904,
  "sTAs": 5905,
  "sTH": 5906,
  "sTT": 5907,
  "sTsi": 5908,
  "sTt": 5909,
  "sXy": 5910,
  "saD": 5911,
  "saHA": 5912,
  "sagA": 5913,
  "sajw": 5914,
  "sak": 5915,
  "sanxy": 5916,
  "saqw": 5917,
  "sarw": 5918,
  "sawA": 5919,
  "sbAqq": 5920,
  "sbHy": 5921,
  "sbT": 5922,
  "sbbA": 5923,
  "sbgA": 5924,
  "sbgs": 5925,
  "sbhA": 5926,
  "sbjk": 5927,
  "sbky": 5928,
  "sbnw": 5929,
  "sbqj": 5930,
  "sbtty": 5931,
  "sbxbx": 5932,
  "sdS": 5933,
  "sdSr": 5934,
  "sdbw": 5935,
  "sdg": 5936,
  "sdi": 5937,
  "sdp": 5938,
  "sdw": 5939,
  "sdwn": 5940,
  "sdy": 5941,
  "sed": 5942,
  "sfnA": 5943,
  "sfnw": 5944,
  "sfrnfr": 5945,
  "sgAbw": 5946,
  "sgAgA": 5947,
  "sgAy": 5948,
  "sgdy": 5949,
  "sgg": 5950,
  "sgm": 5951,
  "sgmH": 5952,
  "sgn": 5953,
  "sgrA": 5954,
  "sgrj": 5955,
  "shAw": 5956,
  "shbu": 5957,
  "shd": 5958,
  "shp": 5959,
  "shri": 5960,
  "shrw": 5961,
  "shtht": 5962,
  "sisi": 5963,
  "sjAd": 5964,
  "sjAdi": 5965,
  "sjTn": 5966,
  "sjbA": 5967,
  "sjdd": 5968,
  "sjf": 5969,
  "sjmA": 5970,
  "sjnd": 5971,
  "sjnj": 5972,
  "sjnn": 5973,
  "sjnw": 5974,
  "sjpy": 5975,
  "sjrAtj": 5976,
  "sjwj": 5977,
  "sjzy": 5978,
  "skmm": 5979,
  "skmy": 5980,
  "skp": 5981,
  "skrj": 5982,
  "sks": 5983,
  "sksky": 5984,
  "skty": 5985,
  "smAA": 5986,
  "smAaw": 5987,
  "smAmA": 5988,
  "smHw": 5989,
  "smSrw": 5990,
  "smdt": 5991,
  "smgw": 5992,
  "smi": 5993,
  "smnj": 5994,
  "smnmn": 5995,
  "smntw": 5996,
  "smnw": 5997,
  "smry": 5998,
  "smsr": 5999,
  "smz": 6000,
  "snDADAw": 6001,
  "snDt": 6002,
  "snHmy": 6003,
  "sna": 6004,
  "sndt": 6005,
  "sndtj": 6006,
  "sngr": 6007,
  "snhj": 6008,
  "snhprgn": 6009,
  "snhzy": 6010,
  "snjk": 6011,
  "snjnj": 6012,
  "snkn": 6013,
  "snnw": 6014,
  "snnwt": 6015,
  "snpw": 6016,
  "snrjw": 6017,
  "snsw": 6018,
  "sntmtm": 6019,
  "snty": 6020,
  "snwH": 6021,
  "snwr": 6022,
  "snwy": 6023,
  "snyj": 6024,
  "snz": 6025,
  "spAi": 6026,
  "spAt": 6027,
  "spAwt": 6028,
  "spnj": 6029,
  "sqAHA": 6030,
  "sqAs": 6031,
  "sqAy": 6032,
  "sqHA": 6033,
  "sqdy": 6034,
  "sqj": 6035,
  "sqjj": 6036,
  "sqnq": 6037,
  "sqq": 6038,
  "sqrqr": 6039,
  "srH": 6040,
  "srS": 6041,
  "srdd": 6042,
  "srfy": 6043,
  "sri": 6044,
  "srmi": 6045,
  "srp": 6046,
  "srrT": 6047,
  "srsw": 6048,
  "ssbi": 6049,
  "ssbt": 6050,
  "ssim": 6051,
  "ssjw": 6052,
  "ssmt": 6053,
  "ssnD": 6054,
  "sssw": 6055,
  "sswr": 6056,
  "ssxm": 6057,
  "stAw": 6058,
  "stH": 6059,
  "sthb": 6060,
  "sthi": 6061,
  "stjHn": 6062,
  "stjS": 6063,
  "stjmw": 6064,
  "stnj": 6065,
  "stpw": 6066,
  "strj": 6067,
  "swAA": 6068,
  "swASj": 6069,
  "swAwA": 6070,
  "swDb": 6071,
  "swSA": 6072,
  "swa": 6073,
  "swai": 6074,
  "swbx": 6075,
  "swdn": 6076,
  "swg": 6077,
  "swgm": 6078,
  "swhAw": 6079,
  "swhj": 6080,
  "swjw": 6081,
  "swni": 6082,
  "swnnw": 6083,
  "swnswn": 6084,
  "swpl": 6085,
  "swqj": 6086,
  "swrx": 6087,
  "sws": 6088,
  "swtA": 6089,
  "swtS": 6090,
  "swtX": 6091,
  "swti": 6092,
  "swu": 6093,
  "swx": 6094,
  "swxAx": 6095,
  "sxAs": 6096,
  "sxAxj": 6097,
  "sxaa": 6098,
  "sxar": 6099,
  "sxbx": 6100,
  "sxdi": 6101,
  "sxdy": 6102,
  "sxf": 6103,
  "sxnS": 6104,
  "sxnjw": 6105,
  "sxntjw": 6106,
  "sxntt": 6107,
  "sxnw": 6108,
  "sxpp": 6109,
  "sxtj": 6110,
  "sxwA": 6111,
  "sxwd": 6112,
  "sxwnw": 6113,
  "sxws": 6114,
  "sxwsj": 6115,
  "sxwt": 6116,
  "sxxts": 6117,
  "sxz": 6118,
  "syw": 6119,
  "tAHw": 6120,
  "tAdu": 6121,
  "tAm": 6122,
  "tAn": 6123,
  "tAnn": 6124,
  "tAry": 6125,
  "tAsw": 6126,
  "tAtmw": 6127,
  "tAwj": 6128,
  "tAytj": 6129,
  "tHt": 6130,
  "tSA": 6131,
  "tSjA": 6132,
  "tSr": 6133,
  "tTj": 6134,
  "tX": 6135,
  "tXs": 6136,
  "tbH": 6137,
  "tbX": 6138,
  "tbh": 6139,
  "tbhA": 6140,
  "tbi": 6141,
  "tbjn": 6142,
  "tbs": 6143,
  "tbt": 6144,
  "tfAj": 6145,
  "tff": 6146,
  "tfjw": 6147,
  "tfnt": 6148,
  "tfpt": 6149,
  "tfrr": 6150,
  "tftf": 6151,
  "thwh": 6152,
  "tiw": 6153,
  "tjHA": 6154,
  "tjHw": 6155,
  "tjHwt": 6156,
  "tjS": 6157,
  "tjSps": 6158,
  "tjaAm": 6159,
  "tjd": 6160,
  "tjdwj": 6161,
  "tjkSr": 6162,
  "tjkj": 6163,
  "tjmA": 6164,
  "tjmHy": 6165,
  "tjmwt": 6166,
  "tjmy": 6167,
  "tjn": 6168,
  "tjnH": 6169,
  "tjnrw": 6170,
  "tjntjn": 6171,
  "tjttjt": 6172,
  "tjtwy": 6173,
  "tjwn": 6174,
  "tjwnj": 6175,
  "tjwr": 6176,
  "tjwrj": 6177,
  "tjypl": 6178,
  "tkAt": 6179,
  "tkkw": 6180,
  "tkm": 6181,
  "tkr": 6182,
  "tmAa": 6183,
  "tmS": 6184,
  "tmj": 6185,
  "tmmw": 6186,
  "tmpsy": 6187,
  "tmwt": 6188,
  "tnA": 6189,
  "tnbwX": 6190,
  "tnhA": 6191,
  "tnpl": 6192,
  "tns": 6193,
  "tntn": 6194,
  "tpi": 6195,
  "tpn": 6196,
  "tpt": 6197,
  "tpty": 6198,
  "tra": 6199,
  "trrk": 6200,
  "tsn": 6201,
  "ttA": 6202,
  "ttt": 6203,
  "tu": 6204,
  "twAhA": 6205,
  "twbn": 6206,
  "twg": 6207,
  "twhr": 6208,
  "twpl": 6209,
  "tww": 6210,
  "twx": 6211,
  "txbs": 6212,
  "txbw": 6213,
  "txf": 6214,
  "txnj": 6215,
  "txsj": 6216,
  "txt": 6217,
  "tyr": 6218,
  "tzm": 6219,
  "ui": 6220,
  "vw": 6221,
  "wADAD": 6222,
  "wADH": 6223,
  "wAHw": 6224,
  "wAh": 6225,
  "wAjT": 6226,
  "wAnb": 6227,
  "wAnr": 6228,
  "wAp": 6229,
  "wArx": 6230,
  "wAsjr": 6231,
  "wAtmAm": 6232,
  "wAwAj": 6233,
  "wAwAw": 6234,
  "wAwt": 6235,
  "wAxx": 6236,
  "wDAA": 6237,
  "wDAi": 6238,
  "wDAy": 6239,
  "wDd": 6240,
  "wDnw": 6241,
  "wHaw": 6242,
  "wHay": 6243,
  "wHd": 6244,
  "wHf": 6245,
  "wHmj": 6246,
  "wHmm": 6247,
  "wHmy": 6248,
  "wHn": 6249,
  "wSAA": 6250,
  "wSbwj": 6251,
  "wSt": 6252,
  "wTnt": 6253,
  "wTsA": 6254,
  "waAwj": 6255,
  "wara": 6256,
  "ware": 6257,
  "wawf": 6258,
  "wbAw": 6259,
  "wbb": 6260,
  "wbg": 6261,
  "wbnn": 6262,
  "wbny": 6263,
  "wbw": 6264,
  "wdA": 6265,
  "wdfj": 6266,
  "wdns": 6267,
  "wdpw": 6268,
  "wfAw": 6269,
  "wfj": 6270,
  "wfjH": 6271,
  "wft": 6272,
  "wgAj": 6273,
  "wgAp": 6274,
  "wgAsw": 6275,
  "wgAw": 6276,
  "whAb": 6277,
  "whAjw": 6278,
  "whAnj": 6279,
  "whAy": 6280,
  "whh": 6281,
  "whj": 6282,
  "wjAn": 6283,
  "wjAw": 6284,
  "wjT": 6285,
  "wjdu": 6286,
  "wjs": 6287,
  "wjsj": 6288,
  "wjt": 6289,
  "wjv": 6290,
  "wk": 6291,
  "wkw": 6292,
  "wmnj": 6293,
  "wmtj": 6294,
  "wnDj": 6295,
  "wnDr": 6296,
  "wnDwj": 6297,
  "wnH": 6298,
  "wnSjw": 6299,
  "wnSw": 6300,
  "wna": 6301,
  "wnnt": 6302,
  "wnpp": 6303,
  "wnz": 6304,
  "wnzj": 6305,
  "wrSS": 6306,
  "wrSww": 6307,
  "wra": 6308,
  "wrk": 6309,
  "wrrw": 6310,
  "wrww": 6311,
  "wsaA": 6312,
  "wsfi": 6313,
  "wsh": 6314,
  "wskw": 6315,
  "wsn": 6316,
  "wsrw": 6317,
  "wtjjA": 6318,
  "wtnt": 6319,
  "wtywt": 6320,
  "wvi": 6321,
  "wwj": 6322,
  "wwt": 6323,
  "wwtj": 6324,
  "www": 6325,
  "wwy": 6326,
  "wxAS": 6327,
  "wxAw": 6328,
  "wxAxj": 6329,
  "wxn": 6330,
  "wypl": 6331,
  "wyw": 6332,
  "xASA": 6333,
  "xAaa": 6334,
  "xAbA": 6335,
  "xAbb": 6336,
  "xAf": 6337,
  "xAp": 6338,
  "xApl": 6339,
  "xArj": 6340,
  "xAst": 6341,
  "xAswt": 6342,
  "xAwi": 6343,
  "xAyb": 6344,
  "xAytj": 6345,
  "xD": 6346,
  "xDw": 6347,
  "xabi": 6348,
  "xbAy": 6349,
  "xbbj": 6350,
  "xbsy": 6351,
  "xdbw": 6352,
  "xdd": 6353,
  "xdp": 6354,
  "xdxd": 6355,
  "xdy": 6356,
  "xfAA": 6357,
  "xfaw": 6358,
  "xftw": 6359,
  "xfx": 6360,
  "xjw": 6361,
  "xkr": 6362,
  "xmAA": 6363,
  "xmai": 6364,
  "xmmj": 6365,
  "xmr": 6366,
  "xnDr": 6367,
  "xnT": 6368,
  "xndS": 6369,
  "xnjt": 6370,
  "xnmt": 6371,
  "xnmy": 6372,
  "xnsy": 6373,
  "xntjw": 6374,
  "xnww": 6375,
  "xnxn": 6376,
  "xpA": 6377,
  "xpSj": 6378,
  "xpSy": 6379,
  "xpTt": 6380,
  "xpnj": 6381,
  "xpnn": 6382,
  "xpnw": 6383,
  "xprS": 6384,
  "xptT": 6385,
  "xpw": 6386,
  "xpxp": 6387,
  "xrm": 6388,
  "xrnt": 6389,
  "xrpw": 6390,
  "xrs": 6391,
  "xrsH": 6392,
  "xrstj": 6393,
  "xrt": 6394,
  "xrww": 6395,
  "xsb": 6396,
  "xsff": 6397,
  "xsft": 6398,
  "xswD": 6399,
  "xtn": 6400,
  "xtp": 6401,
  "xwAsn": 6402,
  "xwD": 6403,
  "xwjt": 6404,
  "xwz": 6405,
  "xwzw": 6406,
  "xxj": 6407,
  "xzA": 6408,
  "yAd": 6409,
  "yAkb": 6410,
  "yH": 6411,
  "yHA": 6412,
  "yab": 6413,
  "ybr": 6414,
  "ydu": 6415,
  "yhy": 6416,
  "yks": 6417,
  "ymm": 6418,
  "ynam": 6419,
  "ynktwn": 6420,
  "ypgdd": 6421,
  "ypwy": 6422,
  "yrqy": 6423,
  "ytwt": 6424,
  "ytx": 6425,
  "ywA": 6426,
  "ywj": 6427,
  "ywn": 6428,
  "zAAw": 6429,
  "zAhr": 6430,
  "zAj": 6431,
  "zAtA": 6432,
  "zAwt": 6433,
  "zHj": 6434,
  "zHy": 6435,
  "zSA": 6436,
  "zSpl": 6437,
  "zSr": 6438,
  "zSw": 6439,
  "zSzSt": 6440,
  "zTA": 6441,
  "zTtt": 6442,
  "zTw": 6443,
  "zaH": 6444,
  "zanx": 6445,
  "zbnw": 6446,
  "zbzb": 6447,
  "zfnw": 6448,
  "zhAi": 6449,
  "zjw": 6450,
  "zjzj": 6451,
  "zkrj": 6452,
  "zmAi": 6453,
  "zmT": 6454,
  "zmi": 6455,
  "zmr": 6456,
  "zmzrj": 6457,
  "znaa": 6458,
  "znh": 6459,
  "znk": 6460,
  "znnw": 6461,
  "znt": 6462,
  "znzn": 6463,
  "zpy": 6464,
  "zqAi": 6465,
  "zrjw": 6466,
  "zrwx": 6467,
  "ztp": 6468,
  "ztt": 6469,
  "zwS": 6470,
  "zwf": 6471,
  "zwj": 6472,
  "zwnj": 6473,
  "zxm": 6474,
  "zxnn": 6475,
  "zzi": 6476
}