{
  "<pad>": 0,
  "<unk>": 1,
  "<mask>": 2,
  "t": 3,
  "n": 4,
  "w": 5,
  "m": 6,
  "j": 7,
  "f": 8,
  "k": 9,
  "r": 10,
  "Hr": 11,
  "pl": 12,
  "nb": 13,
  "s": 14,
  "pA": 15,
  "tA": 16,
  "nTr": 17,
  "i": 18,
  "tj": 19,
  "a": 20,
  "sn": 21,
  "pr": 22,
  "nfr": 23,
  "jw": 24,
  "aA": 25,
  "rA": 26,
  "Dd": 27,
  "sw": 28,
  "iw": 29,
  "tw": 30,
  "anx": 31,
  "raw": 32,
  "jm": 33,
  "kA": 34,
  "Hm": 35,
  "wt": 36,
  "jri": 37,
  "y": 38,
  "jr": 39,
  "xr": 40,
  "nswt": 41,
  "ra": 42,
  "wr": 43,
  "mAa": 44,
  "Htp": 45,
  "A": 46,
  "nA": 47,
  "imn": 48,
  "Ax": 49,
  "sA": 50,
  "HA": 51,
  "Xr": 52,
  "nn": 53,
  "pAy": 54,
  "ir": 55,
  "tp": 56,
  "zA": 57,
  "p": 58,
  "Di": 59,
  "pw": 60,
  "du": 61,
  "jb": 62,
  "x": 63,
  "xrw": 64,
  "Dr": 65,
  "wa": 66,
  "wn": 67,
  "pn": 68,
  "mr": 69,
  "mj": 70,
  "di": 71,
  "jmn": 72,
  "mw": 73,
  "Hw": 74,
  "jn": 75,
  "rdi": 76,
  "wj": 77,
  "T": 78,
  "xt": 79,
  "Abd": 80,
  "rn": 81,
  "D": 82,
  "mn": 83,
  "mH": 84,
  "H": 85,
  "wsjr": 86,
  "xpr": 87,
  "Hna": 88,
  "aHa": 89,
  "tn": 90,
  "ppy": 91,
  "hrw": 92,
  "xA": 93,
  "rx": 94,
  "nty": 95,
  "st": 96,
  "ms": 97,
  "nw": 98,
  "sS": 99,
  "jmAx": 100,
  "HD": 101,
  "jt": 102,
  "bw": 103,
  "xnt": 104,
  "pri": 105,
  "in": 106,
  "zXA": 107,
  "rDi": 108,
  "nxt": 109,
  "b": 110,
  "tt": 111,
  "wDA": 112,
  "z": 113,
  "bA": 114,
  "iri": 115,
  "yt": 116,
  "mtw": 117,
  "rnp": 118,
  "mri": 119,
  "jni": 120,
  "wab": 121,
  "sr": 122,
  "bAk": 123,
  "XAr": 124,
  "wy": 125,
  "Tn": 126,
  "sp": 127,
  "nAy": 128,
  "wsr": 129,
  "wA": 130,
  "tAy": 131,
  "tm": 132,
  "bAH": 133,
  "DA": 134,
  "ptH": 135,
  "mAA": 136,
  "rmT": 137,
  "imy": 138,
  "sDm": 139,
  "wnn": 140,
  "mi": 141,
  "dbn": 142,
  "mdw": 143,
  "jtn": 144,
  "bj": 145,
  "wD": 146,
  "jy": 147,
  "S": 148,
  "it": 149,
  "X": 150,
  "bn": 151,
  "qd": 152,
  "ns": 153,
  "jnk": 154,
  "smr": 155,
  "wAD": 156,
  "Dw": 157,
  "zp": 158,
  "sxm": 159,
  "pH": 160,
  "HqA": 161,
  "aq": 162,
  "nHH": 163,
  "msi": 164,
  "mry": 165,
  "v": 166,
  "gs": 167,
  "TA": 168,
  "q": 169,
  "ky": 170,
  "xft": 171,
  "Xnw": 172,
  "Hsb": 173,
  "xa": 174,
  "iry": 175,
  "mSa": 176,
  "nD": 177,
  "dwA": 178,
  "Tw": 179,
  "nbw": 180,
  "jwi": 181,
  "is": 182,
  "Sw": 183,
  "xAs": 184,
  "sx": 185,
  "ib": 186,
  "d": 187,
  "sxr": 188,
  "ptr": 189,
  "Hry": 190,
  "sHD": 191,
  "wAs": 192,
  "As": 193,
  "hAb": 194,
  "wAH": 195,
  "ty": 196,
  "xtm": 197,
  "js": 198,
  "gmi": 199,
  "mnw": 200,
  "psD": 201,
  "snb": 202,
  "dmD": 203,
  "Ha": 204,
  "h": 205,
  "nsw": 206,
  "km": 207,
  "Ssp": 208,
  "md": 209,
  "Smi": 210,
  "jA": 211,
  "wp": 212,
  "Sd": 213,
  "jmi": 214,
  "qn": 215,
  "rd": 216,
  "Dsr": 217,
  "stp": 218,
  "aSA": 219,
  "mnx": 220,
  "sbA": 221,
  "Smw": 222,
  "Sma": 223,
  "jwn": 224,
  "an": 225,
  "mA": 226,
  "Apd": 227,
  "spr": 228,
  "wHm": 229,
  "nDm": 230,
  "xrp": 231,
  "Hn": 232,
  "dr": 233,
  "aS": 234,
  "ttj": 235,
  "HH": 236,
  "iy": 237,
  "rs": 238,
  "kw": 239,
  "Hnq": 240,
  "mrr": 241,
  "wbn": 242,
  "wnm": 243,
  "jnp": 244,
  "mrw": 245,
  "TAw": 246,
  "niw": 247,
  "grH": 248,
  "Hb": 249,
  "pXr": 250,
  "smn": 251,
  "nzw": 252,
  "aHA": 253,
  "Szp": 254,
  "ip": 255,
  "jAb": 256,
  "Hs": 257,
  "wsx": 258,
  "xai": 259,
  "HAb": 260,
  "Sa": 261,
  "Aw": 262,
  "nmt": 263,
  "DHw": 264,
  "Sri": 265,
  "dd": 266,
  "xsf": 267,
  "xnsw": 268,
  "Sms": 269,
  "jH": 270,
  "zAb": 271,
  "Sm": 272,
  "wnjs": 273,
  "sTA": 274,
  "ini": 275,
  "nm": 276,
  "Hmsi": 277,
  "hAi": 278,
  "jrp": 279,
  "jx": 280,
  "jtj": 281,
  "xm": 282,
  "qrs": 283,
  "Sps": 284,
  "Htr": 285,
  "xpS": 286,
  "gr": 287,
  "mDA": 288,
  "xAa": 289,
  "jTi": 290,
  "my": 291,
  "sStA": 292,
  "sSm": 293,
  "pD": 294,
  "sD": 295,
  "dp": 296,
  "Hmty": 297,
  "rw": 298,
  "snTr": 299,
  "wpi": 300,
  "wHa": 301,
  "Ds": 302,
  "Sdi": 303,
  "rdy": 304,
  "hA": 305,
  "bnr": 306,
  "pa": 307,
  "Hbs": 308,
  "sbk": 309,
  "ti": 310,
  "jrr": 311,
  "Ss": 312,
  "Hri": 313,
  "swt": 314,
  "DbA": 315,
  "Dba": 316,
  "rwD": 317,
  "smA": 318,
  "DD": 319,
  "grg": 320,
  "mrH": 321,
  "nHm": 322,
  "Snw": 323,
  "sk": 324,
  "qbH": 325,
  "ds": 326,
  "mHr": 327,
  "wjA": 328,
  "twt": 329,
  "SA": 330,
  "mAw": 331,
  "jp": 332,
  "sSr": 333,
  "sd": 334,
  "bity": 335,
  "aD": 336,
  "xwi": 337,
  "wnmy": 338,
  "sms": 339,
  "jz": 340,
  "bd": 341,
  "sDr": 342,
  "AH": 343,
  "DADA": 344,
  "fAi": 345,
  "ma": 346,
  "dj": 347,
  "StA": 348,
  "wsf": 349,
  "mk": 350,
  "ix": 351,
  "HAty": 352,
  "aH": 353,
  "ab": 354,
  "mtr": 355,
  "yw": 356,
  "hnw": 357,
  "Hz": 358,
  "jAw": 359,
  "tr": 360,
  "qA": 361,
  "DAi": 362,
  "irm": 363,
  "snD": 364,
  "qmA": 365,
  "SAa": 366,
  "twi": 367,
  "stS": 368,
  "pwy": 369,
  "fj": 370,
  "ink": 371,
  "kAkAj": 372,
  "wxA": 373,
  "Xnm": 374,
  "Hnw": 375,
  "Xrd": 376,
  "tjw": 377,
  "Xn": 378,
  "apr": 379,
  "hAw": 380,
  "jqr": 381,
  "ww": 382,
  "Hwi": 383,
  "sanx": 384,
  "rmw": 385,
  "gbb": 386,
  "DHwty": 387,
  "iTA": 388,
  "mt": 389,
  "Sns": 390,
  "wnw": 391,
  "wpw": 392,
  "Sn": 393,
  "mntk": 394,
  "sAw": 395,
  "kwi": 396,
  "Hy": 397,
  "Sna": 398,
  "sm": 399,
  "swDA": 400,
  "xn": 401,
  "HkA": 402,
  "mitt": 403,
  "jrA": 404,
  "stX": 405,
  "iAw": 406,
  "smHy": 407,
  "jyi": 408,
  "tpy": 409,
  "mnTw": 410,
  "wDa": 411,
  "wi": 412,
  "ja": 413,
  "Drw": 414,
  "TAi": 415,
  "bjA": 416,
  "sHtp": 417,
  "spd": 418,
  "ar": 419,
  "Hmw": 420,
  "gm": 421,
  "xaw": 422,
  "xw": 423,
  "kwj": 424,
  "rsy": 425,
  "wSb": 426,
  "swA": 427,
  "Srj": 428,
  "jmj": 429,
  "jwf": 430,
  "wdn": 431,
  "wbA": 432,
  "mnj": 433,
  "TAty": 434,
  "Ts": 435,
  "dSr": 436,
  "hAy": 437,
  "stx": 438,
  "jtm": 439,
  "Tb": 440,
  "nt": 441,
  "Tzi": 442,
  "XA": 443,
  "dmi": 444,
  "nbs": 445,
  "Sad": 446,
  "im": 447,
  "qs": 448,
  "sX": 449,
  "dbH": 450,
  "nHb": 451,
  "itn": 452,
  "sy": 453,
  "Hnk": 454,
  "qAi": 455,
  "Snj": 456,
  "jwa": 457,
  "sHn": 458,
  "sxA": 459,
  "nh": 460,
  "sj": 461,
  "spA": 462,
  "sxpr": 463,
  "jti": 464,
  "mwt": 465,
  "war": 466,
  "mD": 467,
  "iH": 468,
  "nj": 469,
  "zH": 470,
  "Ty": 471,
  "zmA": 472,
  "AbD": 473,
  "Spsy": 474,
  "ps": 475,
  "pf": 476,
  "smd": 477,
  "iwnw": 478,
  "nxn": 479,
  "gA": 480,
  "pHty": 481,
  "saH": 482,
  "bnj": 483,
  "Xkr": 484,
  "jmm": 485,
  "TAy": 486,
  "Ab": 487,
  "Sb": 488,
  "aqA": 489,
  "aw": 490,
  "dy": 491,
  "qnb": 492,
  "xnr": 493,
  "dmj": 494,
  "HAy": 495,
  "jd": 496,
  "zAw": 497,
  "g": 498,
  "wAg": 499,
  "yA": 500,
  "Dwj": 501,
  "jAwi": 502,
  "zS": 503,
  "mdwi": 504,
  "bi": 505,
  "Swi": 506,
  "snDm": 507,
  "AbDw": 508,
  "THn": 509,
  "sSmi": 510,
  "thi": 511,
  "xbs": 512,
  "jAr": 513,
  "jj": 514,
  "xtA": 515,
  "Tnw": 516,
  "pAj": 517,
  "pj": 518,
  "dA": 519,
  "am": 520,
  "Hkn": 521,
  "mDAy": 522,
  "smAa": 523,
  "twy": 524,
  "qdw": 525,
  "hn": 526,
  "jnb": 527,
  "tAS": 528,
  "DfA": 529,
  "nkt": 530,
  "jtr": 531,
  "inr": 532,
  "wiA": 533,
  "Htm": 534,
  "jSd": 535,
  "pzn": 536,
  "Abw": 537,
  "jnn": 538,
  "ntf": 539,
  "wDb": 540,
  "xnms": 541,
  "Sbn": 542,
  "Tbw": 543,
  "zxn": 544,
  "waw": 545,
  "ASr": 546,
  "smj": 547,
  "wpl": 548,
  "sT": 549,
  "twk": 550,
  "xAw": 551,
  "Hai": 552,
  "qAb": 553,
  "Haa": 554,
  "jpw": 555,
  "smw": 556,
  "Hmt": 557,
  "Hrw": 558,
  "xy": 559,
  "rtH": 560,
  "arq": 561,
  "rmn": 562,
  "skA": 563,
  "swD": 564,
  "DAr": 565,
  "idnw": 566,
  "wnx": 567,
  "Tz": 568,
  "jwA": 569,
  "wrS": 570,
  "aApp": 571,
  "Hms": 572,
  "SsA": 573,
  "hr": 574,
  "ist": 575,
  "nDs": 576,
  "tpl": 577,
  "bwpw": 578,
  "mHw": 579,
  "nxb": 580,
  "Ay": 581,
  "Hsmn": 582,
  "Sr": 583,
  "sf": 584,
  "wtj": 585,
  "sgnn": 586,
  "Smsw": 587,
  "Spss": 588,
  "sAH": 589,
  "wdi": 590,
  "HAt": 591,
  "bjt": 592,
  "mnT": 593,
  "arqy": 594,
  "qnqn": 595,
  "aqw": 596,
  "ks": 597,
  "twA": 598,
  "xpi": 599,
  "aHaw": 600,
  "msw": 601,
  "ptrj": 602,
  "sxpi": 603,
  "bin": 604,
  "msDr": 605,
  "sxt": 606,
  "fnD": 607,
  "iny": 608,
  "waH": 609,
  "zkr": 610,
  "bs": 611,
  "btA": 612,
  "dni": 613,
  "ntk": 614,
  "HmA": 615,
  "jry": 616,
  "qAw": 617,
  "HAw": 618,
  "ad": 619,
  "DHwtj": 620,
  "Tsi": 621,
  "nDri": 622,
  "nxtw": 623,
  "qnw": 624,
  "Xry": 625,
  "mnH": 626,
  "pAw": 627,
  "saHa": 628,
  "stj": 629,
  "arf": 630,
  "Hapj": 631,
  "Xdb": 632,
  "aDd": 633,
  "bjn": 634,
  "nmH": 635,
  "nxw": 636,
  "xnd": 637,
  "dm": 638,
  "gb": 639,
  "nms": 640,
  "Xrj": 641,
  "sAx": 642,
  "smi": 643,
  "Hsi": 644,
  "Hzi": 645,
  "wsir": 646,
  "Hp": 647,
  "aDA": 648,
  "sjA": 649,
  "Sf": 650,
  "ag": 651,
  "mniw": 652,
  "qaH": 653,
  "HAq": 654,
  "bjk": 655,
  "db": 656,
  "tmA": 657,
  "jnr": 658,
  "wDi": 659,
  "fd": 660,
  "mnmn": 661,
  "rwi": 662,
  "xnf": 663,
  "Hbnn": 664,
  "kj": 665,
  "njs": 666,
  "rS": 667,
  "Dam": 668,
  "mnt": 669,
  "psS": 670,
  "rwDw": 671,
  "tAj": 672,
  "mki": 673,
  "psd": 674,
  "sb": 675,
  "Sni": 676,
  "dwAw": 677,
  "xnm": 678,
  "mm": 679,
  "smnx": 680,
  "wAi": 681,
  "zj": 682,
  "Xni": 683,
  "jrt": 684,
  "sfx": 685,
  "sti": 686,
  "xnti": 687,
  "pxA": 688,
  "tnw": 689,
  "wTz": 690,
  "zbi": 691,
  "Dj": 692,
  "Hapy": 693,
  "ax": 694,
  "mntf": 695,
  "sfT": 696,
  "sjp": 697,
  "nwn": 698,
  "sDd": 699,
  "srf": 700,
  "tkn": 701,
  "wai": 702,
  "wdH": 703,
  "wrH": 704,
  "bAs": 705,
  "iqr": 706,
  "jwt": 707,
  "jzzj": 708,
  "mHty": 709,
  "qsn": 710,
  "sjn": 711,
  "nr": 712,
  "smtr": 713,
  "Hsy": 714,
  "Twt": 715,
  "jst": 716,
  "naa": 717,
  "sSd": 718,
  "snf": 719,
  "wrr": 720,
  "aj": 721,
  "mss": 722,
  "wxd": 723,
  "Awi": 724,
  "bAq": 725,
  "jTA": 726,
  "jrj": 727,
  "mnS": 728,
  "msdm": 729,
  "rm": 730,
  "sntr": 731,
  "swH": 732,
  "xntj": 733,
  "Hfn": 734,
  "ipwy": 735,
  "xmt": 736,
  "mrj": 737,
  "prr": 738,
  "ri": 739,
  "rnn": 740,
  "sDA": 741,
  "qni": 742,
  "xAi": 743,
  "diw": 744,
  "jmA": 745,
  "jrw": 746,
  "sni": 747,
  "xnty": 748,
  "xru": 749,
  "Hmww": 750,
  "jAd": 751,
  "kk": 752,
  "maHa": 753,
  "tjt": 754,
  "ypl": 755,
  "Ht": 756,
  "ssm": 757,
  "swn": 758,
  "twtw": 759,
  "aAb": 760,
  "baH": 761,
  "jdb": 762,
  "mDH": 763,
  "rmi": 764,
  "rnpi": 765,
  "stw": 766,
  "zAu": 767,
  "HsA": 768,
  "aAi": 769,
  "dHr": 770,
  "itm": 771,
  "pS": 772,
  "pna": 773,
  "qb": 774,
  "xns": 775,
  "mHy": 776,
  "sbx": 777,
  "snn": 778,
  "mz": 779,
  "wrD": 780,
  "xx": 781,
  "Sp": 782,
  "jpj": 783,
  "na": 784,
  "Say": 785,
  "Smm": 786,
  "nx": 787,
  "sH": 788,
  "sbj": 789,
  "ski": 790,
  "sqr": 791,
  "HDi": 792,
  "Hqr": 793,
  "rf": 794,
  "snsn": 795,
  "xfa": 796,
  "DAy": 797,
  "bHd": 798,
  "jai": 799,
  "jnt": 800,
  "jwr": 801,
  "rmny": 802,
  "xAm": 803,
  "Aq": 804,
  "Db": 805,
  "Htpw": 806,
  "Smaw": 807,
  "hd": 808,
  "hh": 809,
  "nsr": 810,
  "thA": 811,
  "xfti": 812,
  "xftj": 813,
  "ATp": 814,
  "Aaa": 815,
  "jaH": 816,
  "jji": 817,
  "jty": 818,
  "kAp": 819,
  "sjr": 820,
  "aAm": 821,
  "jab": 822,
  "nfrw": 823,
  "qr": 824,
  "rkH": 825,
  "HT": 826,
  "nhm": 827,
  "nni": 828,
  "ws": 829,
  "zn": 830,
  "Xnn": 831,
  "nXnm": 832,
  "pt": 833,
  "qD": 834,
  "rk": 835,
  "Hzz": 836,
  "psi": 837,
  "rsj": 838,
  "trj": 839,
  "wat": 840,
  "SnD": 841,
  "dgA": 842,
  "nH": 843,
  "sSp": 844,
  "Hnmm": 845,
  "Sfy": 846,
  "inb": 847,
  "jsT": 848,
  "kS": 849,
  "nDnD": 850,
  "nswy": 851,
  "qdS": 852,
  "rSw": 853,
  "swrj": 854,
  "Hpt": 855,
  "aHAwty": 856,
  "dAiw": 857,
  "jAm": 858,
  "mjn": 859,
  "psn": 860,
  "kr": 861,
  "ktx": 862,
  "Trp": 863,
  "mAs": 864,
  "msy": 865,
  "nHsy": 866,
  "sTi": 867,
  "HAm": 868,
  "HAp": 869,
  "dAb": 870,
  "gAw": 871,
  "sniw": 872,
  "xd": 873,
  "xdi": 874,
  "Any": 875,
  "SAw": 876,
  "jdw": 877,
  "jrm": 878,
  "mnn": 879,
  "nHs": 880,
  "swr": 881,
  "aHwty": 882,
  "bAw": 883,
  "gmH": 884,
  "srwx": 885,
  "wdpw": 886,
  "Snb": 887,
  "imnt": 888,
  "tfn": 889,
  "wdu": 890,
  "awA": 891,
  "mAj": 892,
  "qmy": 893,
  "rxt": 894,
  "sDb": 895,
  "stA": 896,
  "wAS": 897,
  "iT": 898,
  "mxA": 899,
  "qnj": 900,
  "wni": 901,
  "Hwn": 902,
  "dwn": 903,
  "msH": 904,
  "twn": 905,
  "xArw": 906,
  "xmi": 907,
  "mna": 908,
  "nbj": 909,
  "qbw": 910,
  "xmn": 911,
  "Ai": 912,
  "Atf": 913,
  "DrD": 914,
  "Hts": 915,
  "nHr": 916,
  "nk": 917,
  "sxp": 918,
  "wrd": 919,
  "xb": 920,
  "zXAw": 921,
  "zw": 922,
  "Hmi": 923,
  "sxAw": 924,
  "sxn": 925,
  "HfA": 926,
  "SSj": 927,
  "fx": 928,
  "nhA": 929,
  "nxy": 930,
  "ry": 931,
  "DAm": 932,
  "SAs": 933,
  "Tnr": 934,
  "nwH": 935,
  "wHA": 936,
  "Hwty": 937,
  "Xs": 938,
  "dnj": 939,
  "iA": 940,
  "jmAxw": 941,
  "sAb": 942,
  "smsw": 943,
  "twr": 944,
  "Ssr": 945,
  "awn": 946,
  "bAbA": 947,
  "gmm": 948,
  "xnw": 949,
  "Hsq": 950,
  "anD": 951,
  "gAy": 952,
  "irp": 953,
  "jmw": 954,
  "jpn": 955,
  "nf": 956,
  "nnSm": 957,
  "pfy": 958,
  "rxy": 959,
  "saA": 960,
  "wbd": 961,
  "DnH": 962,
  "Hzw": 963,
  "hnn": 964,
  "hp": 965,
  "jS": 966,
  "jzf": 967,
  "mXn": 968,
  "mjz": 969,
  "mtj": 970,
  "Atp": 971,
  "iwd": 972,
  "rr": 973,
  "swab": 974,
  "wADyt": 975,
  "zwn": 976,
  "zwr": 977,
  "gAb": 978,
  "nai": 979,
  "npA": 980,
  "qi": 981,
  "sbAy": 982,
  "sqd": 983,
  "wTs": 984,
  "wxAx": 985,
  "xpp": 986,
  "ym": 987,
  "abA": 988,
  "arr": 989,
  "dn": 990,
  "iAd": 991,
  "jrf": 992,
  "kfA": 993,
  "mit": 994,
  "ni": 995,
  "pfj": 996,
  "sAq": 997,
  "sbH": 998,
  "sbi": 999,
  "sbjw": 1000,
  "jdA": 1001,
  "jxm": 1002,
  "rD": 1003,
  "wS": 1004,
  "HwA": 1005,
  "Hzmn": 1006,
  "Smay": 1007,
  "Try": 1008,
  "abS": 1009,
  "atx": 1010,
  "biA": 1011,
  "iwf": 1012,
  "mTn": 1013,
  "mtn": 1014,
  "rwj": 1015,
  "tx": 1016,
  "wry": 1017,
  "Dri": 1018,
  "TAz": 1019,
  "gn": 1020,
  "mAq": 1021,
  "tmm": 1022,
  "znf": 1023,
  "Axty": 1024,
  "antj": 1025,
  "hru": 1026,
  "kAmn": 1027,
  "mnD": 1028,
  "qAy": 1029,
  "sDfA": 1030,
  "sTj": 1031,
  "swAD": 1032,
  "th": 1033,
  "xAy": 1034,
  "xsbD": 1035,
  "xsr": 1036,
  "ztj": 1037,
  "SfSf": 1038,
  "axm": 1039,
  "ba": 1040,
  "dns": 1041,
  "jHy": 1042,
  "nTri": 1043,
  "ntyw": 1044,
  "pp": 1045,
  "rwd": 1046,
  "sSA": 1047,
  "sab": 1048,
  "snd": 1049,
  "Hnn": 1050,
  "Sny": 1051,
  "anq": 1052,
  "bdS": 1053,
  "imi": 1054,
  "nrw": 1055,
  "qnd": 1056,
  "smx": 1057,
  "tnr": 1058,
  "wDH": 1059,
  "wnDw": 1060,
  "Snn": 1061,
  "Ttj": 1062,
  "Xnmw": 1063,
  "iTAy": 1064,
  "inw": 1065,
  "jAx": 1066,
  "nwi": 1067,
  "ny": 1068,
  "sHtm": 1069,
  "wSd": 1070,
  "waf": 1071,
  "xp": 1072,
  "xwj": 1073,
  "Ad": 1074,
  "DdH": 1075,
  "inn": 1076,
  "iwn": 1077,
  "jnm": 1078,
  "kbs": 1079,
  "nfw": 1080,
  "snaa": 1081,
  "snm": 1082,
  "srwD": 1083,
  "wmt": 1084,
  "Df": 1085,
  "dhn": 1086,
  "iwnA": 1087,
  "iwty": 1088,
  "jms": 1089,
  "jns": 1090,
  "ntt": 1091,
  "nwy": 1092,
  "psH": 1093,
  "qH": 1094,
  "spH": 1095,
  "srq": 1096,
  "Srjw": 1097,
  "Tnf": 1098,
  "TpH": 1099,
  "jbH": 1100,
  "mni": 1101,
  "nS": 1102,
  "qAr": 1103,
  "sAr": 1104,
  "sbq": 1105,
  "sq": 1106,
  "sty": 1107,
  "wan": 1108,
  "wdp": 1109,
  "Da": 1110,
  "Tnn": 1111,
  "Xsi": 1112,
  "iHw": 1113,
  "inH": 1114,
  "itrw": 1115,
  "sgr": 1116,
  "sqdi": 1117,
  "sst": 1118,
  "tdu": 1119,
  "wbx": 1120,
  "Hrr": 1121,
  "Tni": 1122,
  "iAb": 1123,
  "imw": 1124,
  "iwaw": 1125,
  "jar": 1126,
  "jh": 1127,
  "sft": 1128,
  "sry": 1129,
  "swAS": 1130,
  "wnS": 1131,
  "xprw": 1132,
  "jdn": 1133,
  "mAi": 1134,
  "qmH": 1135,
  "rH": 1136,
  "rp": 1137,
  "sXA": 1138,
  "sip": 1139,
  "snw": 1140,
  "swAw": 1141,
  "tkA": 1142,
  "Drj": 1143,
  "Hati": 1144,
  "jnpw": 1145,
  "jtH": 1146,
  "kAr": 1147,
  "mDd": 1148,
  "nDr": 1149,
  "nTry": 1150,
  "pds": 1151,
  "psmTk": 1152,
  "qrr": 1153,
  "thm": 1154,
  "wH": 1155,
  "Htrj": 1156,
  "fA": 1157,
  "hmhm": 1158,
  "jgr": 1159,
  "jnH": 1160,
  "kfa": 1161,
  "mSwS": 1162,
  "saq": 1163,
  "THnw": 1164,
  "jbj": 1165,
  "msd": 1166,
  "nSm": 1167,
  "pAq": 1168,
  "swtx": 1169,
  "xti": 1170,
  "ATw": 1171,
  "Dar": 1172,
  "Dnw": 1173,
  "Snd": 1174,
  "gHs": 1175,
  "nkn": 1176,
  "nxx": 1177,
  "prj": 1178,
  "sTz": 1179,
  "sam": 1180,
  "snfr": 1181,
  "swtj": 1182,
  "xfty": 1183,
  "zzj": 1184,
  "Swyty": 1185,
  "ant": 1186,
  "jwH": 1187,
  "knmw": 1188,
  "nbd": 1189,
  "nmj": 1190,
  "qAs": 1191,
  "qrH": 1192,
  "wd": 1193,
  "zni": 1194,
  "Daw": 1195,
  "Spsj": 1196,
  "Tr": 1197,
  "iaH": 1198,
  "nhp": 1199,
  "ntr": 1200,
  "pi": 1201,
  "Sj": 1202,
  "bnbn": 1203,
  "ft": 1204,
  "irT": 1205,
  "qbb": 1206,
  "wAw": 1207,
  "wDy": 1208,
  "xprj": 1209,
  "zb": 1210,
  "Ddi": 1211,
  "SASA": 1212,
  "awAi": 1213,
  "bik": 1214,
  "fqA": 1215,
  "iTi": 1216,
  "jnq": 1217,
  "jrT": 1218,
  "jsk": 1219,
  "jstw": 1220,
  "jwd": 1221,
  "kf": 1222,
  "mSr": 1223,
  "nSnj": 1224,
  "nqr": 1225,
  "pd": 1226,
  "ptpt": 1227,
  "rwhA": 1228,
  "sAD": 1229,
  "whi": 1230,
  "wpwty": 1231,
  "zAA": 1232,
  "Dnn": 1233,
  "Hq": 1234,
  "XAk": 1235,
  "Xnj": 1236,
  "bnw": 1237,
  "bxn": 1238,
  "gAu": 1239,
  "rmni": 1240,
  "skr": 1241,
  "srx": 1242,
  "ssn": 1243,
  "Abb": 1244,
  "gnn": 1245,
  "iwtn": 1246,
  "mAt": 1247,
  "mHi": 1248,
  "manD": 1249,
  "njw": 1250,
  "sSn": 1251,
  "Abx": 1252,
  "bS": 1253,
  "bar": 1254,
  "fAy": 1255,
  "ity": 1256,
  "jaA": 1257,
  "mAn": 1258,
  "msxn": 1259,
  "nbi": 1260,
  "ngA": 1261,
  "ntsn": 1262,
  "tnn": 1263,
  "tpnn": 1264,
  "wAwA": 1265,
  "wSa": 1266,
  "Abi": 1267,
  "Ddf": 1268,
  "Hdb": 1269,
  "Hrj": 1270,
  "hy": 1271,
  "ifd": 1272,
  "kAry": 1273,
  "mds": 1274,
  "nfry": 1275,
  "sSw": 1276,
  "sdA": 1277,
  "skm": 1278,
  "xay": 1279,
  "xj": 1280,
  "Ddw": 1281,
  "Hwt": 1282,
  "bb": 1283,
  "pHwy": 1284,
  "pgA": 1285,
  "smAm": 1286,
  "sqbb": 1287,
  "tjy": 1288,
  "wrry": 1289,
  "xaa": 1290,
  "Ams": 1291,
  "Hzj": 1292,
  "TtTt": 1293,
  "ann": 1294,
  "hb": 1295,
  "jwtn": 1296,
  "maw": 1297,
  "mnDm": 1298,
  "snH": 1299,
  "snj": 1300,
  "ss": 1301,
  "wtT": 1302,
  "xbi": 1303,
  "SnT": 1304,
  "aa": 1305,
  "btj": 1306,
  "dw": 1307,
  "grt": 1308,
  "itH": 1309,
  "jdm": 1310,
  "mAH": 1311,
  "mXr": 1312,
  "nww": 1313,
  "pwn": 1314,
  "sdm": 1315,
  "swsx": 1316,
  "xbA": 1317,
  "xprr": 1318,
  "xsbd": 1319,
  "zjf": 1320,
  "Akr": 1321,
  "Szm": 1322,
  "anw": 1323,
  "bH": 1324,
  "bjtj": 1325,
  "dndn": 1326,
  "dx": 1327,
  "fnd": 1328,
  "fr": 1329,
  "jaAw": 1330,
  "kt": 1331,
  "pSn": 1332,
  "qniw": 1333,
  "rj": 1334,
  "saAi": 1335,
  "txb": 1336,
  "wAgS": 1337,
  "xrS": 1338,
  "zAT": 1339,
  "AT": 1340,
  "Hryw": 1341,
  "Tt": 1342,
  "afD": 1343,
  "baHi": 1344,
  "bbj": 1345,
  "bdn": 1346,
  "gmy": 1347,
  "hj": 1348,
  "miw": 1349,
  "nma": 1350,
  "ntw": 1351,
  "qmAm": 1352,
  "sHwr": 1353,
  "sbty": 1354,
  "Hapi": 1355,
  "aAy": 1356,
  "aba": 1357,
  "dmA": 1358,
  "hrp": 1359,
  "jptn": 1360,
  "mnd": 1361,
  "nby": 1362,
  "rxty": 1363,
  "sAA": 1364,
  "sAi": 1365,
  "tyw": 1366,
  "wdHw": 1367,
  "wnf": 1368,
  "wrSu": 1369,
  "xpd": 1370,
  "zAt": 1371,
  "Azx": 1372,
  "Tnj": 1373,
  "Xrty": 1374,
  "bAki": 1375,
  "kAy": 1376,
  "mHnk": 1377,
  "mkHA": 1378,
  "nwd": 1379,
  "nwr": 1380,
  "qAj": 1381,
  "sHri": 1382,
  "sqAi": 1383,
  "srd": 1384,
  "tri": 1385,
  "wx": 1386,
  "Hknw": 1387,
  "Hwrw": 1388,
  "Ttf": 1389,
  "arar": 1390,
  "ihw": 1391,
  "mfkA": 1392,
  "mity": 1393,
  "niwy": 1394,
  "si": 1395,
  "swAi": 1396,
  "sxmx": 1397,
  "tAH": 1398,
  "wADy": 1399,
  "wnD": 1400,
  "xAr": 1401,
  "xAx": 1402,
  "xmnw": 1403,
  "Amj": 1404,
  "AxAx": 1405,
  "Ddj": 1406,
  "Hty": 1407,
  "SAy": 1408,
  "Sww": 1409,
  "Xaq": 1410,
  "Xkrt": 1411,
  "amAm": 1412,
  "dHA": 1413,
  "ftk": 1414,
  "jmAxwt": 1415,
  "nHA": 1416,
  "nri": 1417,
  "sdb": 1418,
  "stxy": 1419,
  "sxty": 1420,
  "Am": 1421,
  "Dab": 1422,
  "Hqt": 1423,
  "Tsm": 1424,
  "bAg": 1425,
  "bAy": 1426,
  "hAn": 1427,
  "idb": 1428,
  "iwny": 1429,
  "jnj": 1430,
  "mAwD": 1431,
  "mrrj": 1432,
  "nis": 1433,
  "nqa": 1434,
  "sSsA": 1435,
  "srs": 1436,
  "tf": 1437,
  "xAb": 1438,
  "xnz": 1439,
  "bHs": 1440,
  "bHz": 1441,
  "bnn": 1442,
  "br": 1443,
  "gbA": 1444,
  "hAA": 1445,
  "jzn": 1446,
  "kAkA": 1447,
  "kkw": 1448,
  "kn": 1449,
  "mnq": 1450,
  "nhrn": 1451,
  "pry": 1452,
  "qjs": 1453,
  "sdbH": 1454,
  "snT": 1455,
  "swtwt": 1456,
  "tS": 1457,
  "Amm": 1458,
  "Dma": 1459,
  "St": 1460,
  "SwA": 1461,
  "Tm": 1462,
  "afn": 1463,
  "and": 1464,
  "jmH": 1465,
  "jwaa": 1466,
  "mAT": 1467,
  "mzH": 1468,
  "pAu": 1469,
  "pjpj": 1470,
  "py": 1471,
  "qny": 1472,
  "rDw": 1473,
  "sbn": 1474,
  "shA": 1475,
  "smy": 1476,
  "snnw": 1477,
  "sxd": 1478,
  "wSA": 1479,
  "wrl": 1480,
  "zpA": 1481,
  "Agb": 1482,
  "Hpj": 1483,
  "SAb": 1484,
  "Smj": 1485,
  "Snaw": 1486,
  "Snf": 1487,
  "Spsi": 1488,
  "Swy": 1489,
  "Ttw": 1490,
  "dAj": 1491,
  "dDw": 1492,
  "gbtw": 1493,
  "hbn": 1494,
  "iAbt": 1495,
  "jsf": 1496,
  "jsj": 1497,
  "jzj": 1498,
  "msk": 1499,
  "nbt": 1500,
  "nim": 1501,
  "px": 1502,
  "rti": 1503,
  "sar": 1504,
  "sgb": 1505,
  "snq": 1506,
  "swAH": 1507,
  "swnw": 1508,
  "swnwn": 1509,
  "tni": 1510,
  "wtt": 1511,
  "HAi": 1512,
  "Hwr": 1513,
  "Sbb": 1514,
  "Sdd": 1515,
  "aAa": 1516,
  "bAst": 1517,
  "jAy": 1518,
  "jdr": 1519,
  "jsw": 1520,
  "ksw": 1521,
  "mhw": 1522,
  "mjw": 1523,
  "psDn": 1524,
  "sHd": 1525,
  "sksk": 1526,
  "smt": 1527,
  "ssnb": 1528,
  "tjHn": 1529,
  "tnm": 1530,
  "wdd": 1531,
  "wnmj": 1532,
  "wrj": 1533,
  "xf": 1534,
  "xni": 1535,
  "xtmw": 1536,
  "HTA": 1537,
  "Hap": 1538,
  "HzA": 1539,
  "Sfd": 1540,
  "Sz": 1541,
  "Tzm": 1542,
  "abw": 1543,
  "biAy": 1544,
  "bwA": 1545,
  "isb": 1546,
  "jArr": 1547,
  "kAi": 1548,
  "kfi": 1549,
  "krjw": 1550,
  "mDq": 1551,
  "mabA": 1552,
  "mar": 1553,
  "mty": 1554,
  "nHi": 1555,
  "sHm": 1556,
  "saSA": 1557,
  "sja": 1558,
  "snk": 1559,
  "sqdd": 1560,
  "tb": 1561,
  "whA": 1562,
  "xAsty": 1563,
  "xma": 1564,
  "xpri": 1565,
  "xrtw": 1566,
  "xry": 1567,
  "DAA": 1568,
  "Dt": 1569,
  "HAwty": 1570,
  "Haw": 1571,
  "Ssm": 1572,
  "awj": 1573,
  "bgA": 1574,
  "bsi": 1575,
  "dqr": 1576,
  "gbi": 1577,
  "ihAy": 1578,
  "irw": 1579,
  "jAA": 1580,
  "kAj": 1581,
  "kT": 1582,
  "kb": 1583,
  "ndj": 1584,
  "ng": 1585,
  "ntj": 1586,
  "pHww": 1587,
  "qj": 1588,
  "qraw": 1589,
  "rTnw": 1590,
  "rsw": 1591,
  "sXkr": 1592,
  "sfn": 1593,
  "spXr": 1594,
  "twtn": 1595,
  "txtx": 1596,
  "wbnw": 1597,
  "wgg": 1598,
  "wyt": 1599,
  "xtxt": 1600,
  "zt": 1601,
  "AA": 1602,
  "Dwi": 1603,
  "HDw": 1604,
  "HHj": 1605,
  "Htj": 1606,
  "Hwy": 1607,
  "Sntj": 1608,
  "aDn": 1609,
  "axi": 1610,
  "imA": 1611,
  "irr": 1612,
  "jbi": 1613,
  "jbw": 1614,
  "jhAy": 1615,
  "mfk": 1616,
  "mrkb": 1617,
  "nDty": 1618,
  "nSny": 1619,
  "pHrr": 1620,
  "rq": 1621,
  "rrm": 1622,
  "srj": 1623,
  "sxnti": 1624,
  "txn": 1625,
  "wstn": 1626,
  "xAwj": 1627,
  "Ar": 1628,
  "Hjp": 1629,
  "HmAy": 1630,
  "Hsw": 1631,
  "Hwra": 1632,
  "SmA": 1633,
  "Snt": 1634,
  "bAqA": 1635,
  "bit": 1636,
  "bkA": 1637,
  "bz": 1638,
  "dwAy": 1639,
  "fn": 1640,
  "idn": 1641,
  "iway": 1642,
  "jfd": 1643,
  "jptw": 1644,
  "jyj": 1645,
  "kAS": 1646,
  "mAx": 1647,
  "mhr": 1648,
  "msAD": 1649,
  "nbD": 1650,
  "nhi": 1651,
  "np": 1652,
  "pzH": 1653,
  "qnjw": 1654,
  "sHw": 1655,
  "sTn": 1656,
  "sTp": 1657,
  "sjqr": 1658,
  "spy": 1659,
  "sqA": 1660,
  "tfnw": 1661,
  "wsj": 1662,
  "wsy": 1663,
  "wxr": 1664,
  "xnn": 1665,
  "xnp": 1666,
  "xntS": 1667,
  "xrwyw": 1668,
  "xwAw": 1669,
  "zbn": 1670,
  "DAjs": 1671,
  "Dbw": 1672,
  "Hmn": 1673,
  "Hzy": 1674,
  "SAi": 1675,
  "SdH": 1676,
  "Sgr": 1677,
  "Srr": 1678,
  "TAr": 1679,
  "Xrtyw": 1680,
  "bAstt": 1681,
  "bT": 1682,
  "byt": 1683,
  "hdm": 1684,
  "inpw": 1685,
  "iwA": 1686,
  "jAq": 1687,
  "jwnw": 1688,
  "kTn": 1689,
  "knr": 1690,
  "nSi": 1691,
  "nSn": 1692,
  "pAwty": 1693,
  "pnq": 1694,
  "pz": 1695,
  "rwy": 1696,
  "saDA": 1697,
  "snTrj": 1698,
  "snwx": 1699,
  "sxs": 1700,
  "watt": 1701,
  "xtjw": 1702,
  "HfAw": 1703,
  "Hmy": 1704,
  "HnHn": 1705,
  "Hpy": 1706,
  "Hss": 1707,
  "SAj": 1708,
  "Sdy": 1709,
  "afA": 1710,
  "bnd": 1711,
  "dgs": 1712,
  "drp": 1713,
  "fdq": 1714,
  "isi": 1715,
  "jSs": 1716,
  "jT": 1717,
  "jTj": 1718,
  "jbA": 1719,
  "mrt": 1720,
  "msD": 1721,
  "msq": 1722,
  "nar": 1723,
  "nhzi": 1724,
  "nsb": 1725,
  "nxtj": 1726,
  "pAd": 1727,
  "qrf": 1728,
  "qwqw": 1729,
  "raiA": 1730,
  "rpy": 1731,
  "sSmw": 1732,
  "shri": 1733,
  "spi": 1734,
  "sxai": 1735,
  "sxsx": 1736,
  "tfi": 1737,
  "wAb": 1738,
  "wm": 1739,
  "wv": 1740,
  "wvH": 1741,
  "xnj": 1742,
  "znb": 1743,
  "Aj": 1744,
  "At": 1745,
  "DnDr": 1746,
  "Hbn": 1747,
  "Hf": 1748,
  "Hfd": 1749,
  "SS": 1750,
  "aHAw": 1751,
  "bsk": 1752,
  "dgAy": 1753,
  "dgi": 1754,
  "dny": 1755,
  "gj": 1756,
  "gw": 1757,
  "iSrw": 1758,
  "ia": 1759,
  "iar": 1760,
  "isf": 1761,
  "iwi": 1762,
  "jaw": 1763,
  "mS": 1764,
  "mSd": 1765,
  "mh": 1766,
  "mskA": 1767,
  "mtnw": 1768,
  "nAj": 1769,
  "nT": 1770,
  "nhj": 1771,
  "nnj": 1772,
  "npl": 1773,
  "nq": 1774,
  "nsy": 1775,
  "plt": 1776,
  "pnw": 1777,
  "qdy": 1778,
  "sATw": 1779,
  "sAt": 1780,
  "sHr": 1781,
  "srm": 1782,
  "stt": 1783,
  "thr": 1784,
  "tkk": 1785,
  "tpH": 1786,
  "wsTn": 1787,
  "xar": 1788,
  "xwy": 1789,
  "zjn": 1790,
  "Ddm": 1791,
  "HDn": 1792,
  "Hbsy": 1793,
  "Hny": 1794,
  "Hpw": 1795,
  "Hsp": 1796,
  "Smai": 1797,
  "StAy": 1798,
  "ama": 1799,
  "bjAi": 1800,
  "by": 1801,
  "fAj": 1802,
  "ftt": 1803,
  "gAS": 1804,
  "gmA": 1805,
  "gsA": 1806,
  "jan": 1807,
  "jkn": 1808,
  "jnw": 1809,
  "kAw": 1810,
  "mAtj": 1811,
  "mmj": 1812,
  "mnfA": 1813,
  "mny": 1814,
  "nay": 1815,
  "npr": 1816,
  "pSr": 1817,
  "psg": 1818,
  "qAA": 1819,
  "qnn": 1820,
  "qra": 1821,
  "rTn": 1822,
  "rnsj": 1823,
  "rpw": 1824,
  "rxs": 1825,
  "sTy": 1826,
  "sbtj": 1827,
  "snnj": 1828,
  "srwd": 1829,
  "twAw": 1830,
  "wsfA": 1831,
  "DrDr": 1832,
  "HkAw": 1833,
  "Hl": 1834,
  "Hwj": 1835,
  "Hww": 1836,
  "HyA": 1837,
  "SAsw": 1838,
  "Spt": 1839,
  "StAw": 1840,
  "THHw": 1841,
  "agA": 1842,
  "akk": 1843,
  "ary": 1844,
  "bAgi": 1845,
  "bST": 1846,
  "bSi": 1847,
  "dS": 1848,
  "dq": 1849,
  "fAw": 1850,
  "imnty": 1851,
  "jmny": 1852,
  "jnD": 1853,
  "kAmw": 1854,
  "ktt": 1855,
  "mHn": 1856,
  "mHt": 1857,
  "mjtr": 1858,
  "mnjw": 1859,
  "mntw": 1860,
  "msdi": 1861,
  "nfrt": 1862,
  "nnw": 1863,
  "pAD": 1864,
  "qdj": 1865,
  "rHs": 1866,
  "sASr": 1867,
  "sAu": 1868,
  "sAwty": 1869,
  "sSnj": 1870,
  "sTty": 1871,
  "sXr": 1872,
  "siA": 1873,
  "wDD": 1874,
  "wHy": 1875,
  "xwd": 1876,
  "AS": 1877,
  "Axw": 1878,
  "Ddd": 1879,
  "SAms": 1880,
  "ST": 1881,
  "Sbd": 1882,
  "Snty": 1883,
  "Srdn": 1884,
  "Swj": 1885,
  "aSm": 1886,
  "af": 1887,
  "amam": 1888,
  "bSA": 1889,
  "bnS": 1890,
  "bzi": 1891,
  "dmd": 1892,
  "dpy": 1893,
  "grw": 1894,
  "hATs": 1895,
  "hm": 1896,
  "hrr": 1897,
  "iab": 1898,
  "ihy": 1899,
  "ipy": 1900,
  "jTAy": 1901,
  "jdH": 1902,
  "jk": 1903,
  "jwnA": 1904,
  "ki": 1905,
  "krSt": 1906,
  "mAjr": 1907,
  "mAjw": 1908,
  "mHa": 1909,
  "mHj": 1910,
  "msDD": 1911,
  "msdd": 1912,
  "nAw": 1913,
  "nhAm": 1914,
  "njA": 1915,
  "nwt": 1916,
  "qbHw": 1917,
  "qw": 1918,
  "rSu": 1919,
  "rdw": 1920,
  "sHwi": 1921,
  "sSwi": 1922,
  "sTt": 1923,
  "skty": 1924,
  "smH": 1925,
  "snh": 1926,
  "stwt": 1927,
  "sxni": 1928,
  "szf": 1929,
  "tjam": 1930,
  "tk": 1931,
  "twT": 1932,
  "wAm": 1933,
  "wHmw": 1934,
  "wnSj": 1935,
  "wzS": 1936,
  "xam": 1937,
  "xtyw": 1938,
  "zi": 1939,
  "zy": 1940,
  "Aa": 1941,
  "Aby": 1942,
  "DAf": 1943,
  "DAs": 1944,
  "HAtt": 1945,
  "Hnb": 1946,
  "Hnt": 1947,
  "Hnty": 1948,
  "Sbw": 1949,
  "Sty": 1950,
  "Swb": 1951,
  "amA": 1952,
  "antyw": 1953,
  "anxw": 1954,
  "bHn": 1955,
  "bnrj": 1956,
  "dAjr": 1957,
  "gwA": 1958,
  "hAkr": 1959,
  "irsw": 1960,
  "isq": 1961,
  "jAxi": 1962,
  "jSst": 1963,
  "jq": 1964,
  "kHkH": 1965,
  "kns": 1966,
  "ksi": 1967,
  "ktkt": 1968,
  "mDw": 1969,
  "minA": 1970,
  "mzw": 1971,
  "nrjw": 1972,
  "pAi": 1973,
  "rDww": 1974,
  "rSj": 1975,
  "rrmi": 1976,
  "sDmy": 1977,
  "sHb": 1978,
  "sSrw": 1979,
  "sby": 1980,
  "sgA": 1981,
  "shr": 1982,
  "sjw": 1983,
  "sqb": 1984,
  "stkn": 1985,
  "swsr": 1986,
  "sxi": 1987,
  "tbn": 1988,
  "tjHwj": 1989,
  "wAx": 1990,
  "wawa": 1991,
  "xAwty": 1992,
  "zk": 1993,
  "zx": 1994,
  "DAhy": 1995,
  "DdA": 1996,
  "Dsf": 1997,
  "Dsrw": 1998,
  "Dwjw": 1999,
  "HAd": 2000,
  "HAtj": 2001,
  "Hsj": 2002,
  "Saj": 2003,
  "Tntj": 2004,
  "Xnnw": 2005,
  "Xsj": 2006,
  "aXm": 2007,
  "aff": 2008,
  "ani": 2009,
  "ara": 2010,
  "bAkj": 2011,
  "bDn": 2012,
  "bSt": 2013,
  "btn": 2014,
  "bwy": 2015,
  "ffj": 2016,
  "fnx": 2017,
  "gAs": 2018,
  "idr": 2019,
  "imny": 2020,
  "iwr": 2021,
  "jdi": 2022,
  "jwy": 2023,
  "knm": 2024,
  "ksb": 2025,
  "mAatyw": 2026,
  "mkj": 2027,
  "nrA": 2028,
  "piAy": 2029,
  "qq": 2030,
  "qrj": 2031,
  "rhn": 2032,
  "rqw": 2033,
  "rrj": 2034,
  "rt": 2035,
  "saAm": 2036,
  "sfj": 2037,
  "sfy": 2038,
  "sskA": 2039,
  "stm": 2040,
  "tjj": 2041,
  "tnj": 2042,
  "tpA": 2043,
  "tyt": 2044,
  "whn": 2045,
  "xAd": 2046,
  "xnS": 2047,
  "xty": 2048,
  "zSn": 2049,
  "zfT": 2050,
  "Dn": 2051,
  "Dss": 2052,
  "Hqq": 2053,
  "HtA": 2054,
  "Sayd": 2055,
  "Ti": 2056,
  "TmA": 2057,
  "Tnt": 2058,
  "Xp": 2059,
  "antjw": 2060,
  "bDA": 2061,
  "bhA": 2062,
  "bxtn": 2063,
  "dmy": 2064,
  "dnrg": 2065,
  "fnT": 2066,
  "gngn": 2067,
  "gstj": 2068,
  "hry": 2069,
  "ian": 2070,
  "imAw": 2071,
  "ipw": 2072,
  "jpy": 2073,
  "jss": 2074,
  "mAmA": 2075,
  "mAr": 2076,
  "mAwj": 2077,
  "maA": 2078,
  "mjs": 2079,
  "mkw": 2080,
  "mnts": 2081,
  "msT": 2082,
  "mtrx": 2083,
  "nfA": 2084,
  "njk": 2085,
  "nwA": 2086,
  "pAxd": 2087,
  "ptx": 2088,
  "qfn": 2089,
  "qri": 2090,
  "rwjA": 2091,
  "shAi": 2092,
  "smAw": 2093,
  "snmH": 2094,
  "sny": 2095,
  "stn": 2096,
  "swhA": 2097,
  "swhi": 2098,
  "sxa": 2099,
  "sxnt": 2100,
  "wSr": 2101,
  "wb": 2102,
  "wnwn": 2103,
  "xrb": 2104,
  "xs": 2105,
  "yn": 2106,
  "zz": 2107,
  "Asb": 2108,
  "DbAw": 2109,
  "DiDi": 2110,
  "Dnd": 2111,
  "Drww": 2112,
  "HaA": 2113,
  "Sq": 2114,
  "THH": 2115,
  "Tj": 2116,
  "XAm": 2117,
  "ai": 2118,
  "amaa": 2119,
  "arSn": 2120,
  "axx": 2121,
  "bHni": 2122,
  "bhn": 2123,
  "bsbs": 2124,
  "bt": 2125,
  "dAdA": 2126,
  "dAw": 2127,
  "dg": 2128,
  "dgm": 2129,
  "gAbw": 2130,
  "gAf": 2131,
  "gbgb": 2132,
  "gsti": 2133,
  "idg": 2134,
  "isw": 2135,
  "itr": 2136,
  "jAl": 2137,
  "jHty": 2138,
  "jSS": 2139,
  "jkb": 2140,
  "jws": 2141,
  "kApw": 2142,
  "mntj": 2143,
  "naS": 2144,
  "nhs": 2145,
  "nzr": 2146,
  "qAqA": 2147,
  "qm": 2148,
  "rpa": 2149,
  "sHAp": 2150,
  "sHrjw": 2151,
  "sTni": 2152,
  "sa": 2153,
  "smsm": 2154,
  "srw": 2155,
  "swgA": 2156,
  "tAw": 2157,
  "tHn": 2158,
  "tjA": 2159,
  "wSn": 2160,
  "whs": 2161,
  "wrnr": 2162,
  "zbj": 2163,
  "zmAm": 2164,
  "zmn": 2165,
  "zmy": 2166,
  "zxni": 2167,
  "Atj": 2168,
  "Axt": 2169,
  "DHwt": 2170,
  "HDDw": 2171,
  "Haaw": 2172,
  "Hrs": 2173,
  "SAm": 2174,
  "Saw": 2175,
  "Skra": 2176,
  "SmAj": 2177,
  "Stj": 2178,
  "Sy": 2179,
  "TAm": 2180,
  "Tkw": 2181,
  "TmHw": 2182,
  "Tms": 2183,
  "anty": 2184,
  "bqs": 2185,
  "ikm": 2186,
  "iwa": 2187,
  "jbrj": 2188,
  "jmk": 2189,
  "jqd": 2190,
  "kp": 2191,
  "ksj": 2192,
  "l": 2193,
  "mdn": 2194,
  "mjt": 2195,
  "msDi": 2196,
  "nDrjw": 2197,
  "naw": 2198,
  "nbA": 2199,
  "nd": 2200,
  "nqm": 2201,
  "nwD": 2202,
  "prS": 2203,
  "prw": 2204,
  "pyr": 2205,
  "rDj": 2206,
  "rmt": 2207,
  "rsf": 2208,
  "sbt": 2209,
  "sdj": 2210,
  "sfxx": 2211,
  "smAy": 2212,
  "sns": 2213,
  "snxt": 2214,
  "tH": 2215,
  "tms": 2216,
  "tty": 2217,
  "twnj": 2218,
  "txi": 2219,
  "wADw": 2220,
  "wAr": 2221,
  "wgs": 2222,
  "wrm": 2223,
  "xAwy": 2224,
  "xbn": 2225,
  "xnfw": 2226,
  "znn": 2227,
  "Dsrt": 2228,
  "Dww": 2229,
  "Dy": 2230,
  "Dz": 2231,
  "Hmj": 2232,
  "Hwa": 2233,
  "SmAy": 2234,
  "Stm": 2235,
  "TArw": 2236,
  "TAs": 2237,
  "Tnfy": 2238,
  "Tsy": 2239,
  "Tzz": 2240,
  "Xa": 2241,
  "Xpw": 2242,
  "bD": 2243,
  "bjwk": 2244,
  "dH": 2245,
  "dby": 2246,
  "dnH": 2247,
  "drf": 2248,
  "gsr": 2249,
  "hAj": 2250,
  "hbny": 2251,
  "hw": 2252,
  "id": 2253,
  "imAx": 2254,
  "irf": 2255,
  "isp": 2256,
  "iwy": 2257,
  "jHA": 2258,
  "jTT": 2259,
  "jhy": 2260,
  "jmntw": 2261,
  "jny": 2262,
  "jsr": 2263,
  "jttj": 2264,
  "kArj": 2265,
  "kywy": 2266,
  "mAfd": 2267,
  "maH": 2268,
  "mnjnjw": 2269,
  "mns": 2270,
  "mnxt": 2271,
  "msj": 2272,
  "msn": 2273,
  "mstA": 2274,
  "nSni": 2275,
  "nht": 2276,
  "njnj": 2277,
  "nmnm": 2278,
  "nmrT": 2279,
  "nrj": 2280,
  "pAx": 2281,
  "pqr": 2282,
  "qdd": 2283,
  "qdi": 2284,
  "rAy": 2285,
  "rSrS": 2286,
  "rbw": 2287,
  "sAT": 2288,
  "sTs": 2289,
  "sXi": 2290,
  "snHm": 2291,
  "snti": 2292,
  "ssf": 2293,
  "sswnu": 2294,
  "sxw": 2295,
  "tjs": 2296,
  "tkAw": 2297,
  "tmw": 2298,
  "wAww": 2299,
  "wAy": 2300,
  "wf": 2301,
  "wiAwiA": 2302,
  "wjn": 2303,
  "wrs": 2304,
  "wtn": 2305,
  "wtw": 2306,
  "xAxA": 2307,
  "xSb": 2308,
  "xbxb": 2309,
  "zpi": 2310,
  "zr": 2311,
  "zwA": 2312,
  "Ah": 2313,
  "DH": 2314,
  "Dnj": 2315,
  "Drjw": 2316,
  "Dsw": 2317,
  "Hab": 2318,
  "Hnnj": 2319,
  "Hnr": 2320,
  "Hntj": 2321,
  "Htpj": 2322,
  "SAjs": 2323,
  "Swty": 2324,
  "TAwy": 2325,
  "TH": 2326,
  "Tkr": 2327,
  "Xtb": 2328,
  "Xty": 2329,
  "anan": 2330,
  "axy": 2331,
  "bHdty": 2332,
  "bHw": 2333,
  "bdd": 2334,
  "bg": 2335,
  "bq": 2336,
  "bsn": 2337,
  "ddw": 2338,
  "dgAs": 2339,
  "gmj": 2340,
  "gwS": 2341,
  "hAp": 2342,
  "hbu": 2343,
  "hnj": 2344,
  "hnqw": 2345,
  "inm": 2346,
  "irnT": 2347,
  "ishA": 2348,
  "jbr": 2349,
  "ji": 2350,
  "jnd": 2351,
  "jntj": 2352,
  "jsq": 2353,
  "knz": 2354,
  "krHt": 2355,
  "ksks": 2356,
  "mTA": 2357,
  "mgA": 2358,
  "mhi": 2359,
  "mhn": 2360,
  "mjmj": 2361,
  "mryn": 2362,
  "mxnt": 2363,
  "nHp": 2364,
  "nbdw": 2365,
  "nmw": 2366,
  "nsrsr": 2367,
  "nxA": 2368,
  "pAyw": 2369,
  "pg": 2370,
  "ptj": 2371,
  "qAH": 2372,
  "qAjs": 2373,
  "rwty": 2374,
  "sAwi": 2375,
  "sSt": 2376,
  "sg": 2377,
  "sjs": 2378,
  "smAwi": 2379,
  "snt": 2380,
  "ssAi": 2381,
  "sswn": 2382,
  "titi": 2383,
  "tpj": 2384,
  "waA": 2385,
  "wfA": 2386,
  "wnmw": 2387,
  "wnt": 2388,
  "wpp": 2389,
  "xmny": 2390,
  "xtj": 2391,
  "zT": 2392,
  "zm": 2393,
  "zxz": 2394,
  "Ama": 2395,
  "DAw": 2396,
  "DHwtt": 2397,
  "HDr": 2398,
  "HTT": 2399,
  "Hby": 2400,
  "Hmm": 2401,
  "Hnj": 2402,
  "HntA": 2403,
  "Sbi": 2404,
  "Spn": 2405,
  "Tsw": 2406,
  "XnXn": 2407,
  "Xnk": 2408,
  "Xny": 2409,
  "aqaq": 2410,
  "awAy": 2411,
  "bAwj": 2412,
  "bAwy": 2413,
  "bgs": 2414,
  "fT": 2415,
  "fk": 2416,
  "fnt": 2417,
  "ftft": 2418,
  "fy": 2419,
  "gbw": 2420,
  "gsgs": 2421,
  "hbhb": 2422,
  "htj": 2423,
  "iAby": 2424,
  "iai": 2425,
  "ipp": 2426,
  "isbr": 2427,
  "jAwj": 2428,
  "jHw": 2429,
  "jSr": 2430,
  "jgA": 2431,
  "jkm": 2432,
  "jmntj": 2433,
  "jnnk": 2434,
  "jntsn": 2435,
  "jtwr": 2436,
  "kDn": 2437,
  "khA": 2438,
  "krkmS": 2439,
  "ksm": 2440,
  "mAwi": 2441,
  "mak": 2442,
  "mnfy": 2443,
  "mnwy": 2444,
  "msnH": 2445,
  "mstj": 2446,
  "mtA": 2447,
  "mx": 2448,
  "mxr": 2449,
  "nDw": 2450,
  "nHd": 2451,
  "nHsj": 2452,
  "nSw": 2453,
  "nXr": 2454,
  "nfrwsy": 2455,
  "nmti": 2456,
  "nnk": 2457,
  "nnm": 2458,
  "nsj": 2459,
  "nxbt": 2460,
  "nzp": 2461,
  "pAwr": 2462,
  "prx": 2463,
  "qAd": 2464,
  "qHqH": 2465,
  "qa": 2466,
  "qwr": 2467,
  "rAw": 2468,
  "rqy": 2469,
  "rtnw": 2470,
  "rwrw": 2471,
  "sDH": 2472,
  "sTzi": 2473,
  "sXnk": 2474,
  "sdAdA": 2475,
  "sdgA": 2476,
  "sin": 2477,
  "sjm": 2478,
  "smjw": 2479,
  "sndu": 2480,
  "sntrj": 2481,
  "ssw": 2482,
  "sswnw": 2483,
  "swmnw": 2484,
  "swxA": 2485,
  "sxtxt": 2486,
  "tiw": 2487,
  "tnbX": 2488,
  "twrj": 2489,
  "txbs": 2490,
  "wADwAD": 2491,
  "wAxi": 2492,
  "wpj": 2493,
  "wpt": 2494,
  "wrSt": 2495,
  "xAbw": 2496,
  "yti": 2497,
  "zf": 2498,
  "AqA": 2499,
  "DAD": 2500,
  "Daa": 2501,
  "Ddb": 2502,
  "DfD": 2503,
  "DfDf": 2504,
  "DjDj": 2505,
  "Dndr": 2506,
  "Hbb": 2507,
  "Hj": 2508,
  "HjHj": 2509,
  "Hk": 2510,
  "HnbAbA": 2511,
  "Hns": 2512,
  "HwAA": 2513,
  "Sai": 2514,
  "SdSd": 2515,
  "Swbty": 2516,
  "THHwy": 2517,
  "TTj": 2518,
  "Tndu": 2519,
  "Xam": 2520,
  "XpA": 2521,
  "Xt": 2522,
  "aAw": 2523,
  "aXn": 2524,
  "afd": 2525,
  "anp": 2526,
  "aqAy": 2527,
  "bAX": 2528,
  "bAby": 2529,
  "bAkjw": 2530,
  "bAkw": 2531,
  "bAtA": 2532,
  "bgi": 2533,
  "bjAk": 2534,
  "brt": 2535,
  "bsy": 2536,
  "bxx": 2537,
  "dAjw": 2538,
  "dbdb": 2539,
  "dng": 2540,
  "dpw": 2541,
  "dxn": 2542,
  "gAHs": 2543,
  "gS": 2544,
  "gbgby": 2545,
  "gmgm": 2546,
  "gz": 2547,
  "hAnA": 2548,
  "hwS": 2549,
  "idH": 2550,
  "insi": 2551,
  "isdd": 2552,
  "iwry": 2553,
  "jAbi": 2554,
  "jAj": 2555,
  "jAkb": 2556,
  "jHj": 2557,
  "jara": 2558,
  "jbb": 2559,
  "jbn": 2560,
  "jdj": 2561,
  "jmr": 2562,
  "jpf": 2563,
  "jsy": 2564,
  "jwj": 2565,
  "jwpw": 2566,
  "jxr": 2567,
  "kbnj": 2568,
  "khb": 2569,
  "mAat": 2570,
  "mAnw": 2571,
  "mHwn": 2572,
  "mSrw": 2573,
  "mXtw": 2574,
  "mtrtw": 2575,
  "mzHw": 2576,
  "nSA": 2577,
  "nTrj": 2578,
  "nX": 2579,
  "nfrj": 2580,
  "nhmhm": 2581,
  "njm": 2582,
  "nmHy": 2583,
  "nny": 2584,
  "nxAxA": 2585,
  "pSS": 2586,
  "pnd": 2587,
  "ppj": 2588,
  "pq": 2589,
  "prwj": 2590,
  "pss": 2591,
  "qdjw": 2592,
  "qrqr": 2593,
  "rmm": 2594,
  "rxj": 2595,
  "sAm": 2596,
  "sAtA": 2597,
  "sAy": 2598,
  "sbS": 2599,
  "sfr": 2600,
  "shru": 2601,
  "snfrw": 2602,
  "snr": 2603,
  "sqnn": 2604,
  "swS": 2605,
  "tHwA": 2606,
  "tfy": 2607,
  "tjtj": 2608,
  "tmt": 2609,
  "tny": 2610,
  "twf": 2611,
  "twnn": 2612,
  "twti": 2613,
  "u": 2614,
  "wHwH": 2615,
  "wSS": 2616,
  "wSm": 2617,
  "wdj": 2618,
  "wg": 2619,
  "wgA": 2620,
  "wnb": 2621,
  "wnj": 2622,
  "wsTnw": 2623,
  "wsxt": 2624,
  "wyn": 2625,
  "xAsw": 2626,
  "xbd": 2627,
  "xmw": 2628,
  "xmy": 2629,
  "xrd": 2630,
  "xrj": 2631,
  "xsd": 2632,
  "zAi": 2633,
  "znj": 2634,
  "zxi": 2635,
  "AHt": 2636,
  "ATpw": 2637,
  "Aay": 2638,
  "AhA": 2639,
  "Ajr": 2640,
  "Ayt": 2641,
  "Daam": 2642,
  "DrjDrj": 2643,
  "HApwty": 2644,
  "Hdby": 2645,
  "Hsr": 2646,
  "Hwtf": 2647,
  "SD": 2648,
  "Saq": 2649,
  "Sbtn": 2650,
  "Sfdw": 2651,
  "SmSm": 2652,
  "Smsi": 2653,
  "Stw": 2654,
  "Tss": 2655,
  "Xrt": 2656,
  "Xrw": 2657,
  "Xzi": 2658,
  "aDr": 2659,
  "aHwwtj": 2660,
  "adw": 2661,
  "anb": 2662,
  "anxj": 2663,
  "astj": 2664,
  "baba": 2665,
  "bk": 2666,
  "dAr": 2667,
  "ddwn": 2668,
  "fdi": 2669,
  "gp": 2670,
  "gsw": 2671,
  "gy": 2672,
  "hAd": 2673,
  "hi": 2674,
  "hni": 2675,
  "iAbty": 2676,
  "ihm": 2677,
  "imr": 2678,
  "ipn": 2679,
  "isy": 2680,
  "iwH": 2681,
  "iwnn": 2682,
  "jAk": 2683,
  "jAzn": 2684,
  "jbsA": 2685,
  "jhA": 2686,
  "jkw": 2687,
  "jmnt": 2688,
  "jmpy": 2689,
  "jpt": 2690,
  "jsb": 2691,
  "jsp": 2692,
  "jtw": 2693,
  "jwjw": 2694,
  "jwsw": 2695,
  "jxj": 2696,
  "kAm": 2697,
  "kAwty": 2698,
  "kkwy": 2699,
  "mAaj": 2700,
  "mDAb": 2701,
  "mDr": 2702,
  "mSn": 2703,
  "mXnty": 2704,
  "mdnj": 2705,
  "mjj": 2706,
  "mjnb": 2707,
  "mjnj": 2708,
  "mnnw": 2709,
  "mryty": 2710,
  "mxsf": 2711,
  "mxw": 2712,
  "nAyw": 2713,
  "nDmnDm": 2714,
  "ndb": 2715,
  "nfAj": 2716,
  "nfa": 2717,
  "nfy": 2718,
  "njAjA": 2719,
  "npH": 2720,
  "nst": 2721,
  "ntS": 2722,
  "nwj": 2723,
  "nxbxb": 2724,
  "nz": 2725,
  "pX": 2726,
  "pfA": 2727,
  "pfs": 2728,
  "qHn": 2729,
  "qrjs": 2730,
  "rnnwt": 2731,
  "rnpj": 2732,
  "sDAy": 2733,
  "sHmi": 2734,
  "sHqA": 2735,
  "sHrj": 2736,
  "sarq": 2737,
  "sbw": 2738,
  "sfd": 2739,
  "sjAt": 2740,
  "sjpj": 2741,
  "sndw": 2742,
  "snhA": 2743,
  "spdd": 2744,
  "spp": 2745,
  "stf": 2746,
  "sxntj": 2747,
  "sxti": 2748,
  "sxwn": 2749,
  "szn": 2750,
  "tAxb": 2751,
  "tSi": 2752,
  "tbj": 2753,
  "tmAm": 2754,
  "trr": 2755,
  "wDf": 2756,
  "wDj": 2757,
  "wSwS": 2758,
  "waa": 2759,
  "wbs": 2760,
  "wgi": 2761,
  "whm": 2762,
  "wng": 2763,
  "wnmi": 2764,
  "wsi": 2765,
  "xnD": 2766,
  "xsA": 2767,
  "xws": 2768,
  "ywt": 2769,
  "zft": 2770,
  "zmjn": 2771,
  "Ahd": 2772,
  "Apdw": 2773,
  "DAj": 2774,
  "DHty": 2775,
  "Dnr": 2776,
  "Dry": 2777,
  "HApw": 2778,
  "Hfdi": 2779,
  "HmAm": 2780,
  "HmHm": 2781,
  "Hmtj": 2782,
  "Hnzk": 2783,
  "Hrt": 2784,
  "SAd": 2785,
  "SnDw": 2786,
  "Srm": 2787,
  "SsAw": 2788,
  "TAu": 2789,
  "TT": 2790,
  "TiTi": 2791,
  "Tktn": 2792,
  "Ttt": 2793,
  "Twfy": 2794,
  "XAb": 2795,
  "XAy": 2796,
  "Xms": 2797,
  "Xnty": 2798,
  "Xsy": 2799,
  "XtXt": 2800,
  "aHAty": 2801,
  "aX": 2802,
  "arw": 2803,
  "awg": 2804,
  "axw": 2805,
  "bAb": 2806,
  "bnD": 2807,
  "bny": 2808,
  "bry": 2809,
  "bss": 2810,
  "bwi": 2811,
  "dbA": 2812,
  "djfn": 2813,
  "dwi": 2814,
  "fkA": 2815,
  "fq": 2816,
  "fw": 2817,
  "gAH": 2818,
  "gg": 2819,
  "hdn": 2820,
  "hnhn": 2821,
  "hwt": 2822,
  "ibH": 2823,
  "ipA": 2824,
  "ipd": 2825,
  "irs": 2826,
  "isr": 2827,
  "isyw": 2828,
  "iwiw": 2829,
  "jAbt": 2830,
  "jAjr": 2831,
  "jSf": 2832,
  "jTt": 2833,
  "jhj": 2834,
  "jhm": 2835,
  "jmntt": 2836,
  "jpl": 2837,
  "jqrj": 2838,
  "jrtjw": 2839,
  "jsd": 2840,
  "jww": 2841,
  "jxx": 2842,
  "jzi": 2843,
  "jzkn": 2844,
  "kAn": 2845,
  "kAt": 2846,
  "kSj": 2847,
  "kSkS": 2848,
  "mDdw": 2849,
  "mXaq": 2850,
  "mXt": 2851,
  "mabAyw": 2852,
  "mapw": 2853,
  "mawH": 2854,
  "mis": 2855,
  "mnf": 2856,
  "mnqb": 2857,
  "mntT": 2858,
  "mrd": 2859,
  "mst": 2860,
  "mtwn": 2861,
  "mwy": 2862,
  "nDA": 2863,
  "nDf": 2864,
  "nSdy": 2865,
  "nTrwAs": 2866,
  "nbH": 2867,
  "nfj": 2868,
  "nhsi": 2869,
  "nhw": 2870,
  "niwty": 2871,
  "nts": 2872,
  "nxj": 2873,
  "nyny": 2874,
  "psDi": 2875,
  "rrk": 2876,
  "sAHw": 2877,
  "sHA": 2878,
  "sSAA": 2879,
  "sTAw": 2880,
  "sXAww": 2881,
  "sXb": 2882,
  "saqA": 2883,
  "sbiw": 2884,
  "sdwx": 2885,
  "sfA": 2886,
  "sgrH": 2887,
  "sky": 2888,
  "snS": 2889,
  "snx": 2890,
  "sppy": 2891,
  "spt": 2892,
  "srjw": 2893,
  "ssA": 2894,
  "stnm": 2895,
  "sww": 2896,
  "tjms": 2897,
  "tka": 2898,
  "tpi": 2899,
  "wAHy": 2900,
  "wDfi": 2901,
  "wT": 2902,
  "wdf": 2903,
  "wnp": 2904,
  "wpS": 2905,
  "wrt": 2906,
  "wrw": 2907,
  "xaj": 2908,
  "xdb": 2909,
  "xfA": 2910,
  "xnrt": 2911,
  "xntSj": 2912,
  "xri": 2913,
  "xwfw": 2914,
  "xwsi": 2915,
  "zSzS": 2916,
  "zam": 2917,
  "zbA": 2918,
  "zwnT": 2919,
  "Abdw": 2920,
  "Aqw": 2921,
  "Asx": 2922,
  "Aty": 2923,
  "DAt": 2924,
  "DAyw": 2925,
  "DfAw": 2926,
  "HAa": 2927,
  "HDD": 2928,
  "Han": 2929,
  "Hatj": 2930,
  "Hbnnw": 2931,
  "Hfj": 2932,
  "HnT": 2933,
  "Hnkz": 2934,
  "Hnsk": 2935,
  "HntAsw": 2936,
  "HryA": 2937,
  "Htpt": 2938,
  "Hzp": 2939,
  "Hzzy": 2940,
  "SAT": 2941,
  "Saf": 2942,
  "Sby": 2943,
  "Sdj": 2944,
  "SmaA": 2945,
  "Smsj": 2946,
  "SnTT": 2947,
  "Snm": 2948,
  "Spnn": 2949,
  "Spst": 2950,
  "TAj": 2951,
  "Tfw": 2952,
  "TjTj": 2953,
  "Tntt": 2954,
  "Tti": 2955,
  "Xnmt": 2956,
  "Xnmww": 2957,
  "Xryw": 2958,
  "XsA": 2959,
  "aAg": 2960,
  "aDaD": 2961,
  "aSj": 2962,
  "aSq": 2963,
  "aXnwty": 2964,
  "aan": 2965,
  "aanj": 2966,
  "arrw": 2967,
  "astrt": 2968,
  "bAgs": 2969,
  "bAn": 2970,
  "bTn": 2971,
  "baHj": 2972,
  "ban": 2973,
  "bnf": 2974,
  "dHty": 2975,
  "ddj": 2976,
  "dgAw": 2977,
  "didi": 2978,
  "djdj": 2979,
  "djw": 2980,
  "dsj": 2981,
  "dydy": 2982,
  "fdw": 2983,
  "fntj": 2984,
  "fsi": 2985,
  "gAi": 2986,
  "gi": 2987,
  "gns": 2988,
  "gsfn": 2989,
  "hAm": 2990,
  "idniw": 2991,
  "igr": 2992,
  "ikn": 2993,
  "ikrt": 2994,
  "inhmn": 2995,
  "ipt": 2996,
  "irqs": 2997,
  "iwms": 2998,
  "jAT": 2999,
  "jAi": 3000,
  "jbAn": 3001,
  "jbT": 3002,
  "jby": 3003,
  "jdy": 3004,
  "jgp": 3005,
  "jhh": 3006,
  "jmAm": 3007,
  "jmy": 3008,
  "jnmm": 3009,
  "jnxj": 3010,
  "jptf": 3011,
  "jtA": 3012,
  "jwdn": 3013,
  "jzr": 3014,
  "jzzy": 3015,
  "kAA": 3016,
  "kTt": 3017,
  "kh": 3018,
  "mAy": 3019,
  "mSA": 3020,
  "mST": 3021,
  "mSp": 3022,
  "mT": 3023,
  "manx": 3024,
  "mdj": 3025,
  "mfx": 3026,
  "mjni": 3027,
  "mntn": 3028,
  "mnty": 3029,
  "mnzA": 3030,
  "mqr": 3031,
  "mrrt": 3032,
  "mxn": 3033,
  "nhd": 3034,
  "nik": 3035,
  "nmst": 3036,
  "nmtj": 3037,
  "nxnx": 3038,
  "pAs": 3039,
  "pAz": 3040,
  "pHr": 3041,
  "pan": 3042,
  "pdr": 3043,
  "ptri": 3044,
  "pwj": 3045,
  "pzS": 3046,
  "qAjw": 3047,
  "qDwdn": 3048,
  "qaHt": 3049,
  "qfdn": 3050,
  "qrDn": 3051,
  "qrqS": 3052,
  "qsty": 3053,
  "rT": 3054,
  "rdm": 3055,
  "rmy": 3056,
  "rtHty": 3057,
  "sArj": 3058,
  "sAsA": 3059,
  "sDf": 3060,
  "sDsr": 3061,
  "sSS": 3062,
  "sSmm": 3063,
  "sSsAw": 3064,
  "sTHn": 3065,
  "sXm": 3066,
  "sXnn": 3067,
  "sbAw": 3068,
  "sbjA": 3069,
  "sdwA": 3070,
  "sfxw": 3071,
  "sjAT": 3072,
  "skj": 3073,
  "skt": 3074,
  "sma": 3075,
  "smwn": 3076,
  "snbj": 3077,
  "sps": 3078,
  "spw": 3079,
  "sqbH": 3080,
  "sqn": 3081,
  "ssx": 3082,
  "swbA": 3083,
  "swh": 3084,
  "sxAx": 3085,
  "sxdxd": 3086,
  "sxmty": 3087,
  "sxpt": 3088,
  "sxrw": 3089,
  "sxsf": 3090,
  "tAyw": 3091,
  "tStS": 3092,
  "thAb": 3093,
  "tjr": 3094,
  "tjwtj": 3095,
  "ttw": 3096,
  "twri": 3097,
  "wDAw": 3098,
  "wjAwjA": 3099,
  "wpwt": 3100,
  "wrHw": 3101,
  "wsS": 3102,
  "wsrkn": 3103,
  "wti": 3104,
  "wtx": 3105,
  "wty": 3106,
  "xbb": 3107,
  "xbr": 3108,
  "xnnj": 3109,
  "xntt": 3110,
  "xnws": 3111,
  "xsbb": 3112,
  "xsfi": 3113,
  "xwzi": 3114,
  "yai": 3115,
  "yar": 3116,
  "ywpA": 3117,
  "zAr": 3118,
  "zHp": 3119,
  "znS": 3120,
  "zxA": 3121,
  "ADA": 3122,
  "Afa": 3123,
  "Ajs": 3124,
  "Axj": 3125,
  "DHA": 3126,
  "DHa": 3127,
  "Dan": 3128,
  "Ddt": 3129,
  "DrT": 3130,
  "Drti": 3131,
  "Dswi": 3132,
  "HAww": 3133,
  "HaDA": 3134,
  "Har": 3135,
  "Hnnw": 3136,
  "Hsk": 3137,
  "SAr": 3138,
  "Sfa": 3139,
  "Slm": 3140,
  "SnDt": 3141,
  "SnS": 3142,
  "Stp": 3143,
  "Swt": 3144,
  "THr": 3145,
  "TTw": 3146,
  "Tp": 3147,
  "Trw": 3148,
  "Tsj": 3149,
  "TwA": 3150,
  "Twfj": 3151,
  "Xaa": 3152,
  "Xaqw": 3153,
  "Xb": 3154,
  "Xri": 3155,
  "aAA": 3156,
  "aAD": 3157,
  "aDw": 3158,
  "abb": 3159,
  "aby": 3160,
  "aft": 3161,
  "agt": 3162,
  "anar": 3163,
  "ap": 3164,
  "bAS": 3165,
  "bAky": 3166,
  "bSS": 3167,
  "bSd": 3168,
  "bh": 3169,
  "biAi": 3170,
  "bl": 3171,
  "btAw": 3172,
  "bwt": 3173,
  "bzA": 3174,
  "dbHn": 3175,
  "drdn": 3176,
  "fgA": 3177,
  "gAbi": 3178,
  "hAbwj": 3179,
  "hhj": 3180,
  "htt": 3181,
  "iAq": 3182,
  "ibr": 3183,
  "idy": 3184,
  "ih": 3185,
  "iknw": 3186,
  "imwty": 3187,
  "inq": 3188,
  "iwS": 3189,
  "jAaS": 3190,
  "jAg": 3191,
  "jAkm": 3192,
  "jAt": 3193,
  "jTn": 3194,
  "jTw": 3195,
  "jjj": 3196,
  "jksj": 3197,
  "jmt": 3198,
  "jnT": 3199,
  "jna": 3200,
  "jnjw": 3201,
  "jnty": 3202,
  "jnz": 3203,
  "jpp": 3204,
  "jra": 3205,
  "jtrw": 3206,
  "jtt": 3207,
  "jwms": 3208,
  "jwnn": 3209,
  "jxxj": 3210,
  "jzp": 3211,
  "kAhs": 3212,
  "kms": 3213,
  "knan": 3214,
  "knj": 3215,
  "kpny": 3216,
  "kpr": 3217,
  "kpw": 3218,
  "krj": 3219,
  "ktm": 3220,
  "ktw": 3221,
  "kz": 3222,
  "mAf": 3223,
  "mAwA": 3224,
  "mHA": 3225,
  "mSpn": 3226,
  "mXnm": 3227,
  "mXrj": 3228,
  "mabAy": 3229,
  "mann": 3230,
  "maq": 3231,
  "may": 3232,
  "mdd": 3233,
  "mhwj": 3234,
  "mkA": 3235,
  "mks": 3236,
  "mnjA": 3237,
  "mnjn": 3238,
  "mntwf": 3239,
  "mrHw": 3240,
  "mrk": 3241,
  "mrry": 3242,
  "mrwt": 3243,
  "msdmt": 3244,
  "mstyw": 3245,
  "mtm": 3246,
  "mwmw": 3247,
  "mwnf": 3248,
  "mxAy": 3249,
  "mzA": 3250,
  "nAn": 3251,
  "nDH": 3252,
  "nDHDH": 3253,
  "nHD": 3254,
  "nSp": 3255,
  "nbb": 3256,
  "ngs": 3257,
  "nhr": 3258,
  "nhy": 3259,
  "niA": 3260,
  "njwjw": 3261,
  "nkAj": 3262,
  "nrr": 3263,
  "nwAwA": 3264,
  "nxv": 3265,
  "nxwy": 3266,
  "pXrw": 3267,
  "paw": 3268,
  "pgAjs": 3269,
  "pgAs": 3270,
  "pgs": 3271,
  "pnTw": 3272,
  "pns": 3273,
  "prst": 3274,
  "pti": 3275,
  "pwi": 3276,
  "pyA": 3277,
  "qAa": 3278,
  "qAri": 3279,
  "qdm": 3280,
  "qfA": 3281,
  "qmd": 3282,
  "rHH": 3283,
  "rbrn": 3284,
  "rdj": 3285,
  "rg": 3286,
  "rhd": 3287,
  "rmnw": 3288,
  "rnpw": 3289,
  "rqA": 3290,
  "rsn": 3291,
  "rww": 3292,
  "sAbw": 3293,
  "sAd": 3294,
  "sAwj": 3295,
  "sDrjw": 3296,
  "sDry": 3297,
  "sDwi": 3298,
  "sHAb": 3299,
  "sHAi": 3300,
  "sHt": 3301,
  "sSkr": 3302,
  "sTnj": 3303,
  "sXp": 3304,
  "sXri": 3305,
  "sXy": 3306,
  "sbAq": 3307,
  "sbT": 3308,
  "sdAwg": 3309,
  "sdx": 3310,
  "sfg": 3311,
  "sh": 3312,
  "shrr": 3313,
  "sjAA": 3314,
  "sjd": 3315,
  "sjni": 3316,
  "sjrA": 3317,
  "sjwi": 3318,
  "skn": 3319,
  "smHi": 3320,
  "smHr": 3321,
  "snTi": 3322,
  "snbb": 3323,
  "sngr": 3324,
  "snny": 3325,
  "snwxt": 3326,
  "srD": 3327,
  "stXj": 3328,
  "sthi": 3329,
  "stni": 3330,
  "stpt": 3331,
  "subst": 3332,
  "swj": 3333,
  "swrd": 3334,
  "swtX": 3335,
  "sxnj": 3336,
  "sxx": 3337,
  "sxy": 3338,
  "tT": 3339,
  "tbtb": 3340,
  "thAm": 3341,
  "thn": 3342,
  "tiSps": 3343,
  "tjmH": 3344,
  "tnp": 3345,
  "try": 3346,
  "twhA": 3347,
  "twiA": 3348,
  "wAsi": 3349,
  "wDfA": 3350,
  "wDn": 3351,
  "wSAwSA": 3352,
  "wbdj": 3353,
  "wbdy": 3354,
  "wgp": 3355,
  "wh": 3356,
  "whb": 3357,
  "whnn": 3358,
  "wntj": 3359,
  "wtnw": 3360,
  "xAD": 3361,
  "xAbs": 3362,
  "xAwt": 3363,
  "xfj": 3364,
  "xnmm": 3365,
  "xntw": 3366,
  "xnx": 3367,
  "xrxr": 3368,
  "xtf": 3369,
  "xtw": 3370,
  "zSSn": 3371,
  "zSp": 3372,
  "zX": 3373,
  "zbT": 3374,
  "znw": 3375,
  "AD": 3376,
  "AbA": 3377,
  "Ag": 3378,
  "Agg": 3379,
  "Ak": 3380,
  "Asr": 3381,
  "Awj": 3382,
  "Axi": 3383,
  "DAb": 3384,
  "DAd": 3385,
  "DHtj": 3386,
  "Dbb": 3387,
  "Ddy": 3388,
  "Dpr": 3389,
  "HAg": 3390,
  "HAj": 3391,
  "HAr": 3392,
  "Hbnbn": 3393,
  "Hd": 3394,
  "HnA": 3395,
  "HrH": 3396,
  "SAA": 3397,
  "SAbw": 3398,
  "SAjw": 3399,
  "SHq": 3400,
  "Sbnw": 3401,
  "Sddj": 3402,
  "Sdn": 3403,
  "Sdw": 3404,
  "Sfu": 3405,
  "Smas": 3406,
  "SnTy": 3407,
  "Spsw": 3408,
  "Spty": 3409,
  "SrSr": 3410,
  "Srw": 3411,
  "Ssy": 3412,
  "Stjw": 3413,
  "TAb": 3414,
  "Tf": 3415,
  "Tfj": 3416,
  "Tg": 3417,
  "Tjf": 3418,
  "Tjs": 3419,
  "TnH": 3420,
  "TnTA": 3421,
  "Tnm": 3422,
  "Trm": 3423,
  "Twn": 3424,
  "XpS": 3425,
  "Xz": 3426,
  "aDdj": 3427,
  "aHay": 3428,
  "aSgAj": 3429,
  "aXi": 3430,
  "agAy": 3431,
  "agn": 3432,
  "amAT": 3433,
  "amm": 3434,
  "annw": 3435,
  "apAy": 3436,
  "api": 3437,
  "apw": 3438,
  "aqy": 3439,
  "arfwj": 3440,
  "ay": 3441,
  "bAA": 3442,
  "bAbAw": 3443,
  "bAbj": 3444,
  "bAd": 3445,
  "bAi": 3446,
  "bAkA": 3447,
  "bHdt": 3448,
  "bStw": 3449,
  "bTw": 3450,
  "bX": 3451,
  "baHw": 3452,
  "bbw": 3453,
  "bjbj": 3454,
  "bnrt": 3455,
  "bsw": 3456,
  "btnw": 3457,
  "bwj": 3458,
  "bwn": 3459,
  "dgdg": 3460,
  "dwnj": 3461,
  "fAt": 3462,
  "fiT": 3463,
  "fxx": 3464,
  "gASj": 3465,
  "gAfj": 3466,
  "gHsA": 3467,
  "gf": 3468,
  "gmHsw": 3469,
  "gnw": 3470,
  "gwtn": 3471,
  "hAbnj": 3472,
  "hAmm": 3473,
  "hAr": 3474,
  "hArw": 3475,
  "hT": 3476,
  "hbi": 3477,
  "hbj": 3478,
  "hbnj": 3479,
  "hbnw": 3480,
  "hnnj": 3481,
  "hpAT": 3482,
  "hpj": 3483,
  "hpn": 3484,
  "ht": 3485,
  "htm": 3486,
  "iAA": 3487,
  "iAty": 3488,
  "iAxw": 3489,
  "iaw": 3490,
  "ihhy": 3491,
  "ihi": 3492,
  "iwAy": 3493,
  "iwsw": 3494,
  "jAS": 3495,
  "jAbw": 3496,
  "jAdr": 3497,
  "jAs": 3498,
  "jTr": 3499,
  "jaS": 3500,
  "jaa": 3501,
  "jbjb": 3502,
  "jbtj": 3503,
  "jf": 3504,
  "jfdj": 3505,
  "jfj": 3506,
  "jjw": 3507,
  "jmnw": 3508,
  "jpd": 3509,
  "jqw": 3510,
  "jsds": 3511,
  "jzy": 3512,
  "jzz": 3513,
  "kHA": 3514,
  "kTm": 3515,
  "kmH": 3516,
  "kmt": 3517,
  "kmy": 3518,
  "knn": 3519,
  "krbr": 3520,
  "krk": 3521,
  "mAd": 3522,
  "mAm": 3523,
  "mAtiwAhAr": 3524,
  "mHDr": 3525,
  "mHws": 3526,
  "mSS": 3527,
  "mSnT": 3528,
  "mTw": 3529,
  "matn": 3530,
  "mgs": 3531,
  "mhAw": 3532,
  "mhd": 3533,
  "mimi": 3534,
  "minb": 3535,
  "mkti": 3536,
  "mmrm": 3537,
  "mnm": 3538,
  "mntjw": 3539,
  "mnxw": 3540,
  "mrrw": 3541,
  "mskt": 3542,
  "mtk": 3543,
  "mxnm": 3544,
  "mzi": 3545,
  "mzmz": 3546,
  "mzwr": 3547,
  "nAt": 3548,
  "nDADA": 3549,
  "nDtj": 3550,
  "nHmm": 3551,
  "nHrwj": 3552,
  "nSd": 3553,
  "nbnb": 3554,
  "nft": 3555,
  "ngg": 3556,
  "njt": 3557,
  "nnA": 3558,
  "nnS": 3559,
  "nsjsj": 3560,
  "nsns": 3561,
  "nssq": 3562,
  "nsyt": 3563,
  "ntb": 3564,
  "nwb": 3565,
  "nws": 3566,
  "nwx": 3567,
  "nxnw": 3568,
  "pDi": 3569,
  "pDw": 3570,
  "pHD": 3571,
  "pHs": 3572,
  "pHt": 3573,
  "pHwj": 3574,
  "pTy": 3575,
  "papa": 3576,
  "pay": 3577,
  "pfsi": 3578,
  "piTA": 3579,
  "pipi": 3580,
  "pnn": 3581,
  "prt": 3582,
  "ptn": 3583,
  "pxd": 3584,
  "pyiAy": 3585,
  "pzx": 3586,
  "qDn": 3587,
  "qbqb": 3588,
  "qby": 3589,
  "qdb": 3590,
  "qf": 3591,
  "qrrj": 3592,
  "qt": 3593,
  "rDy": 3594,
  "rHw": 3595,
  "rhni": 3596,
  "rkHw": 3597,
  "rnw": 3598,
  "rri": 3599,
  "rrw": 3600,
  "rsi": 3601,
  "ru": 3602,
  "sDw": 3603,
  "sHnw": 3604,
  "sHsH": 3605,
  "sHtpy": 3606,
  "sHwrj": 3607,
  "sSnq": 3608,
  "sSwA": 3609,
  "sTAm": 3610,
  "sXAk": 3611,
  "saHw": 3612,
  "sbqA": 3613,
  "sbr": 3614,
  "sdH": 3615,
  "sdd": 3616,
  "sdmj": 3617,
  "sfnd": 3618,
  "sjH": 3619,
  "sjar": 3620,
  "smAwj": 3621,
  "smDd": 3622,
  "smtj": 3623,
  "snTri": 3624,
  "snfxfx": 3625,
  "snsnj": 3626,
  "sprw": 3627,
  "spxA": 3628,
  "srmw": 3629,
  "ssj": 3630,
  "sspd": 3631,
  "stnw": 3632,
  "str": 3633,
  "swmt": 3634,
  "swy": 3635,
  "sxAy": 3636,
  "sxwA": 3637,
  "tHwj": 3638,
  "tbA": 3639,
  "tbs": 3640,
  "tbsTA": 3641,
  "tbw": 3642,
  "tfA": 3643,
  "tjH": 3644,
  "tjHwA": 3645,
  "tjdu": 3646,
  "tjmHj": 3647,
  "tjpl": 3648,
  "tjwt": 3649,
  "tnhm": 3650,
  "tnt": 3651,
  "trp": 3652,
  "tv": 3653,
  "wADt": 3654,
  "wAHwAH": 3655,
  "wAgj": 3656,
  "wAxj": 3657,
  "wDbw": 3658,
  "wHAm": 3659,
  "wHmy": 3660,
  "wHs": 3661,
  "wSby": 3662,
  "wawy": 3663,
  "wdb": 3664,
  "wdnw": 3665,
  "wgAs": 3666,
  "wgm": 3667,
  "whAj": 3668,
  "whAn": 3669,
  "wnwt": 3670,
  "wsH": 3671,
  "wtA": 3672,
  "wxAwy": 3673,
  "xAj": 3674,
  "xi": 3675,
  "xjxj": 3676,
  "xjy": 3677,
  "xmm": 3678,
  "xnmti": 3679,
  "xny": 3680,
  "xprpw": 3681,
  "xrr": 3682,
  "xrt": 3683,
  "xsbt": 3684,
  "xtAsArA": 3685,
  "xtmt": 3686,
  "xwrr": 3687,
  "xwx": 3688,
  "ytj": 3689,
  "yv": 3690,
  "yy": 3691,
  "zSS": 3692,
  "zSi": 3693,
  "zSj": 3694,
  "zbb": 3695,
  "zby": 3696,
  "zmz": 3697,
  "zpr": 3698,
  "ATi": 3699,
  "AXb": 3700,
  "Aaanj": 3701,
  "Abj": 3702,
  "Adj": 3703,
  "An": 3704,
  "Ap": 3705,
  "Asq": 3706,
  "Awr": 3707,
  "Awt": 3708,
  "Aww": 3709,
  "Az": 3710,
  "DAty": 3711,
  "DAwt": 3712,
  "Dbay": 3713,
  "Dbg": 3714,
  "DdT": 3715,
  "Dm": 3716,
  "DpH": 3717,
  "DrDrj": 3718,
  "Driw": 3719,
  "DsDs": 3720,
  "DwDw": 3721,
  "HAdj": 3722,
  "HAtjw": 3723,
  "HAwr": 3724,
  "HDb": 3725,
  "HDt": 3726,
  "Haj": 3727,
  "HbA": 3728,
  "Hba": 3729,
  "Hbi": 3730,
  "Hbnnt": 3731,
  "Hdd": 3732,
  "HmD": 3733,
  "Hmk": 3734,
  "Hmu": 3735,
  "HnTi": 3736,
  "Hnbw": 3737,
  "Hni": 3738,
  "Hnkw": 3739,
  "Hnmnm": 3740,
  "HnswA": 3741,
  "Hnti": 3742,
  "Hpd": 3743,
  "Hpr": 3744,
  "Hst": 3745,
  "Htw": 3746,
  "SAS": 3747,
  "SASAy": 3748,
  "SAbd": 3749,
  "SAmswt": 3750,
  "SAmw": 3751,
  "Sdnw": 3752,
  "Sdr": 3753,
  "Sdt": 3754,
  "Sfn": 3755,
  "Sfnw": 3756,
  "Sft": 3757,
  "Sfw": 3758,
  "Si": 3759,
  "SmAm": 3760,
  "Snay": 3761,
  "Sndy": 3762,
  "Snp": 3763,
  "Snwj": 3764,
  "Sta": 3765,
  "Su": 3766,
  "TAtj": 3767,
  "THnn": 3768,
  "THs": 3769,
  "Tbn": 3770,
  "Tbww": 3771,
  "TmH": 3772,
  "Tpg": 3773,
  "Trb": 3774,
  "Trf": 3775,
  "Trt": 3776,
  "Trx": 3777,
  "TwTw": 3778,
  "Tzj": 3779,
  "Tzt": 3780,
  "XAw": 3781,
  "Xd": 3782,
  "XdXd": 3783,
  "Xrm": 3784,
  "Xsw": 3785,
  "Xzj": 3786,
  "aAaA": 3787,
  "aAj": 3788,
  "aDAw": 3789,
  "aDi": 3790,
  "aHw": 3791,
  "aSa": 3792,
  "aaAm": 3793,
  "aaf": 3794,
  "aaw": 3795,
  "aawi": 3796,
  "abH": 3797,
  "abab": 3798,
  "agni": 3799,
  "ags": 3800,
  "agwt": 3801,
  "amD": 3802,
  "amd": 3803,
  "amy": 3804,
  "annxj": 3805,
  "anxy": 3806,
  "apSA": 3807,
  "apnn": 3808,
  "app": 3809,
  "aqAn": 3810,
  "at": 3811,
  "awDr": 3812,
  "awy": 3813,
  "bAgj": 3814,
  "bAj": 3815,
  "bAnd": 3816,
  "bHbH": 3817,
  "bTA": 3818,
  "bTy": 3819,
  "baj": 3820,
  "bjnr": 3821,
  "bnt": 3822,
  "brk": 3823,
  "brry": 3824,
  "bsj": 3825,
  "btin": 3826,
  "bxnj": 3827,
  "bxnt": 3828,
  "dAg": 3829,
  "dHdH": 3830,
  "dbHw": 3831,
  "dbnbn": 3832,
  "dbw": 3833,
  "dgy": 3834,
  "dh": 3835,
  "djA": 3836,
  "dmg": 3837,
  "dnin": 3838,
  "dnm": 3839,
  "dnn": 3840,
  "dnw": 3841,
  "dpH": 3842,
  "dpt": 3843,
  "dupl": 3844,
  "dwDw": 3845,
  "dz": 3846,
  "fAA": 3847,
  "fa": 3848,
  "fg": 3849,
  "fnn": 3850,
  "fnxw": 3851,
  "gAA": 3852,
  "gAbg": 3853,
  "gAgAw": 3854,
  "gAnn": 3855,
  "gD": 3856,
  "gH": 3857,
  "gbty": 3858,
  "gmHs": 3859,
  "gnX": 3860,
  "grj": 3861,
  "gwg": 3862,
  "hAbt": 3863,
  "hAnw": 3864,
  "hDhD": 3865,
  "hbjw": 3866,
  "hbq": 3867,
  "hjw": 3868,
  "hnjnj": 3869,
  "iAi": 3870,
  "iAkb": 3871,
  "iAy": 3872,
  "iSS": 3873,
  "iSf": 3874,
  "iSt": 3875,
  "iTyn": 3876,
  "ibht": 3877,
  "ibi": 3878,
  "ikATi": 3879,
  "ikS": 3880,
  "imAxw": 3881,
  "imH": 3882,
  "inrn": 3883,
  "ipdw": 3884,
  "ipip": 3885,
  "irwn": 3886,
  "isk": 3887,
  "ispw": 3888,
  "ixy": 3889,
  "jAdj": 3890,
  "jAkw": 3891,
  "jAmA": 3892,
  "jHtj": 3893,
  "jaj": 3894,
  "jana": 3895,
  "jbd": 3896,
  "jbh": 3897,
  "jhbw": 3898,
  "jkj": 3899,
  "jmsT": 3900,
  "jmzw": 3901,
  "jndb": 3902,
  "jnnA": 3903,
  "jnsi": 3904,
  "jrtj": 3905,
  "jsbw": 3906,
  "jsdd": 3907,
  "jsdn": 3908,
  "jsdz": 3909,
  "jsn": 3910,
  "jsx": 3911,
  "jtjw": 3912,
  "jv": 3913,
  "jwm": 3914,
  "jwtj": 3915,
  "kAf": 3916,
  "kAs": 3917,
  "kAwj": 3918,
  "kH": 3919,
  "kaf": 3920,
  "kfAw": 3921,
  "khAb": 3922,
  "kiry": 3923,
  "kkwj": 3924,
  "kmA": 3925,
  "knH": 3926,
  "knkn": 3927,
  "knmwt": 3928,
  "krT": 3929,
  "krp": 3930,
  "krss": 3931,
  "kry": 3932,
  "kss": 3933,
  "ktj": 3934,
  "kwms": 3935,
  "kwsr": 3936,
  "kyj": 3937,
  "mAX": 3938,
  "mAaw": 3939,
  "mAgs": 3940,
  "mAiwt": 3941,
  "mAkj": 3942,
  "mAui": 3943,
  "mAv": 3944,
  "mDAt": 3945,
  "mDqt": 3946,
  "mHbq": 3947,
  "mHrj": 3948,
  "mSSr": 3949,
  "mXA": 3950,
  "maHA": 3951,
  "makA": 3952,
  "makHA": 3953,
  "makj": 3954,
  "mam": 3955,
  "mard": 3956,
  "mdwy": 3957,
  "mgr": 3958,
  "min": 3959,
  "mjnA": 3960,
  "mky": 3961,
  "mnTA": 3962,
  "mnhz": 3963,
  "mnsA": 3964,
  "mntt": 3965,
  "mnz": 3966,
  "mshrt": 3967,
  "mspr": 3968,
  "msr": 3969,
  "mssj": 3970,
  "msv": 3971,
  "msxAA": 3972,
  "msxt": 3973,
  "mtrj": 3974,
  "mzj": 3975,
  "mzt": 3976,
  "nAwt": 3977,
  "nDdDd": 3978,
  "nDnDtj": 3979,
  "nDrw": 3980,
  "nHn": 3981,
  "nHrnHr": 3982,
  "nHrw": 3983,
  "nHsi": 3984,
  "nSD": 3985,
  "nTn": 3986,
  "nXn": 3987,
  "nbAbA": 3988,
  "nbsj": 3989,
  "nbsy": 3990,
  "ndy": 3991,
  "nfrty": 3992,
  "nftft": 3993,
  "ngAgA": 3994,
  "ngAw": 3995,
  "ngsgs": 3996,
  "nhwt": 3997,
  "nhz": 3998,
  "njsj": 3999,
  "njsw": 4000,
  "nkA": 4001,
  "nkk": 4002,
  "nmi": 4003,
  "npi": 4004,
  "npj": 4005,
  "npnp": 4006,
  "npw": 4007,
  "nqdd": 4008,
  "nqf": 4009,
  "nrAw": 4010,
  "ntAi": 4011,
  "ntTn": 4012,
  "nti": 4013,
  "ntnt": 4014,
  "nwT": 4015,
  "nxtv": 4016,
  "nznzn": 4017,
  "pAa": 4018,
  "pAv": 4019,
  "pAwtj": 4020,
  "pHw": 4021,
  "pjTA": 4022,
  "pnana": 4023,
  "pnjAt": 4024,
  "pnz": 4025,
  "ppn": 4026,
  "psDy": 4027,
  "pxpx": 4028,
  "qAmd": 4029,
  "qDm": 4030,
  "qDt": 4031,
  "qdqd": 4032,
  "qdwt": 4033,
  "qmAw": 4034,
  "qmj": 4035,
  "qmnn": 4036,
  "qnni": 4037,
  "qrnt": 4038,
  "qrst": 4039,
  "qry": 4040,
  "qsj": 4041,
  "qst": 4042,
  "qy": 4043,
  "qzn": 4044,
  "rArAmw": 4045,
  "rDD": 4046,
  "rHb": 4047,
  "rSS": 4048,
  "raHqA": 4049,
  "rdt": 4050,
  "rid": 4051,
  "rkm": 4052,
  "rkrk": 4053,
  "rmnn": 4054,
  "rqi": 4055,
  "rwti": 4056,
  "rwwj": 4057,
  "sAbj": 4058,
  "sAjr": 4059,
  "sAmm": 4060,
  "sAww": 4061,
  "sHAw": 4062,
  "sHai": 4063,
  "sHqr": 4064,
  "sSj": 4065,
  "sSmj": 4066,
  "sTsi": 4067,
  "sXn": 4068,
  "sXrj": 4069,
  "sand": 4070,
  "sasa": 4071,
  "sax": 4072,
  "sbAg": 4073,
  "sbHw": 4074,
  "sbdS": 4075,
  "sbjwk": 4076,
  "sbnw": 4077,
  "sdf": 4078,
  "sdgAw": 4079,
  "sdgi": 4080,
  "shAd": 4081,
  "sid": 4082,
  "siqr": 4083,
  "sjwr": 4084,
  "skk": 4085,
  "smAr": 4086,
  "smHj": 4087,
  "smar": 4088,
  "smsi": 4089,
  "snHA": 4090,
  "snbw": 4091,
  "snfi": 4092,
  "snfj": 4093,
  "snhp": 4094,
  "snnm": 4095,
  "sntj": 4096,
  "snwt": 4097,
  "snxx": 4098,
  "spXrw": 4099,
  "spdw": 4100,
  "spna": 4101,
  "sqdj": 4102,
  "sqrj": 4103,
  "srdd": 4104,
  "srp": 4105,
  "srr": 4106,
  "srty": 4107,
  "ssAA": 4108,
  "ssD": 4109,
  "ssH": 4110,
  "ssfj": 4111,
  "ssnDm": 4112,
  "stb": 4113,
  "stpw": 4114,
  "strps": 4115,
  "stwA": 4116,
  "swAgA": 4117,
  "swd": 4118,
  "swnu": 4119,
  "swrH": 4120,
  "swsn": 4121,
  "swst": 4122,
  "swxt": 4123,
  "sxnw": 4124,
  "sxpj": 4125,
  "sz": 4126,
  "szwnu": 4127,
  "szwr": 4128,
  "tAf": 4129,
  "tAhArqA": 4130,
  "tAr": 4131,
  "tAtA": 4132,
  "tAyty": 4133,
  "tin": 4134,
  "tinn": 4135,
  "tis": 4136,
  "tjHnw": 4137,
  "tmH": 4138,
  "tntj": 4139,
  "tpty": 4140,
  "trw": 4141,
  "ttA": 4142,
  "twAwt": 4143,
  "txj": 4144,
  "txsy": 4145,
  "txw": 4146,
  "tyj": 4147,
  "wATj": 4148,
  "wAgi": 4149,
  "wAmm": 4150,
  "wAst": 4151,
  "wAt": 4152,
  "wAwAw": 4153,
  "wDny": 4154,
  "wDw": 4155,
  "wSAA": 4156,
  "wSAm": 4157,
  "wSbty": 4158,
  "wbtj": 4159,
  "wgAg": 4160,
  "whnj": 4161,
  "wjwj": 4162,
  "wjyt": 4163,
  "wnu": 4164,
  "wnxw": 4165,
  "wny": 4166,
  "wps": 4167,
  "wsdn": 4168,
  "wsrt": 4169,
  "wst": 4170,
  "wtjw": 4171,
  "wxAw": 4172,
  "wxdw": 4173,
  "xAA": 4174,
  "xAt": 4175,
  "xAtb": 4176,
  "xbD": 4177,
  "xbss": 4178,
  "xbx": 4179,
  "xfd": 4180,
  "xfnn": 4181,
  "xfxf": 4182,
  "xfy": 4183,
  "xmx": 4184,
  "xmxm": 4185,
  "xnmw": 4186,
  "xnrj": 4187,
  "xnsA": 4188,
  "xnsAy": 4189,
  "xpn": 4190,
  "xprS": 4191,
  "xpx": 4192,
  "xrps": 4193,
  "xrwy": 4194,
  "xsD": 4195,
  "xwA": 4196,
  "xwn": 4197,
  "xwns": 4198,
  "xww": 4199,
  "xxw": 4200,
  "xxwj": 4201,
  "xz": 4202,
  "xzd": 4203,
  "yhj": 4204,
  "yi": 4205,
  "ytt": 4206,
  "ywm": 4207,
  "zAS": 4208,
  "zATw": 4209,
  "zAhl": 4210,
  "zAtw": 4211,
  "zAy": 4212,
  "zbnbn": 4213,
  "znH": 4214,
  "znHm": 4215,
  "znT": 4216,
  "znbA": 4217,
  "znnj": 4218,
  "zrm": 4219,
  "zwT": 4220,
  "AAj": 4221,
  "ATt": 4222,
  "AXa": 4223,
  "Aaany": 4224,
  "Aab": 4225,
  "Aafj": 4226,
  "AbAb": 4227,
  "Abu": 4228,
  "Af": 4229,
  "Agbj": 4230,
  "Aht": 4231,
  "Ajw": 4232,
  "Amw": 4233,
  "Amy": 4234,
  "Apt": 4235,
  "Aqdqd": 4236,
  "Arr": 4237,
  "Asy": 4238,
  "Ati": 4239,
  "Atw": 4240,
  "AwA": 4241,
  "Awsw": 4242,
  "AxA": 4243,
  "Axb": 4244,
  "Axr": 4245,
  "Axtj": 4246,
  "DAfj": 4247,
  "DAjw": 4248,
  "DAmw": 4249,
  "DAn": 4250,
  "DHaa": 4251,
  "DarA": 4252,
  "DbDb": 4253,
  "Dbi": 4254,
  "Dbn": 4255,
  "Ddnn": 4256,
  "Dfd": 4257,
  "Dfi": 4258,
  "Dfy": 4259,
  "Dhn": 4260,
  "Dhy": 4261,
  "Diw": 4262,
  "DnD": 4263,
  "Dnwd": 4264,
  "Drt": 4265,
  "Drty": 4266,
  "F": 4267,
  "HAfy": 4268,
  "HAqA": 4269,
  "HAs": 4270,
  "HAtw": 4271,
  "HAwy": 4272,
  "HDj": 4273,
  "HDnDn": 4274,
  "HDnw": 4275,
  "HDwy": 4276,
  "HHi": 4277,
  "HTAwj": 4278,
  "Hbsd": 4279,
  "Hbsw": 4280,
  "HdD": 4281,
  "Hdqq": 4282,
  "HfD": 4283,
  "Hfnn": 4284,
  "Hfrn": 4285,
  "Hfy": 4286,
  "Hi": 4287,
  "Hjy": 4288,
  "HkAht": 4289,
  "Hkk": 4290,
  "HmAg": 4291,
  "Hmz": 4292,
  "Hnf": 4293,
  "Hngg": 4294,
  "Hnkt": 4295,
  "Hnky": 4296,
  "Hnm": 4297,
  "Hnyt": 4298,
  "Hpapa": 4299,
  "Hpp": 4300,
  "Hptj": 4301,
  "Hqn": 4302,
  "Hqrr": 4303,
  "Hrjw": 4304,
  "Hrp": 4305,
  "Hrti": 4306,
  "Hrtj": 4307,
  "Hrwr": 4308,
  "Hsm": 4309,
  "HtAw": 4310,
  "Htpwj": 4311,
  "Hwraw": 4312,
  "Hwsw": 4313,
  "Hwtj": 4314,
  "Hzzj": 4315,
  "SATw": 4316,
  "SAasx": 4317,
  "SAf": 4318,
  "SAp": 4319,
  "SAtytywA": 4320,
  "SSnq": 4321,
  "STy": 4322,
  "Sar": 4323,
  "Sat": 4324,
  "SbSb": 4325,
  "Sbtj": 4326,
  "Sdtt": 4327,
  "SfS": 4328,
  "Sfdy": 4329,
  "Sfyt": 4330,
  "Sjk": 4331,
  "SkrS": 4332,
  "SmSw": 4333,
  "Smg": 4334,
  "Smr": 4335,
  "Snwty": 4336,
  "SpS": 4337,
  "Spssj": 4338,
  "Spw": 4339,
  "Spy": 4340,
  "SrS": 4341,
  "Sra": 4342,
  "Sry": 4343,
  "StT": 4344,
  "SwAw": 4345,
  "Swwj": 4346,
  "Szpp": 4347,
  "TAmwt": 4348,
  "TApr": 4349,
  "TAry": 4350,
  "TAwj": 4351,
  "TAwrw": 4352,
  "THb": 4353,
  "TbTb": 4354,
  "Tftn": 4355,
  "ThA": 4356,
  "TiA": 4357,
  "TjA": 4358,
  "TjT": 4359,
  "Tjm": 4360,
  "Tjrr": 4361,
  "TmAm": 4362,
  "TmTm": 4363,
  "Tmrw": 4364,
  "Tmzj": 4365,
  "Tmzw": 4366,
  "Tnfj": 4367,
  "Tnrk": 4368,
  "Tpr": 4369,
  "Trj": 4370,
  "Trr": 4371,
  "TsjA": 4372,
  "Tsjs": 4373,
  "Tst": 4374,
  "Ttn": 4375,
  "TwnA": 4376,
  "Tzmy": 4377,
  "Tzy": 4378,
  "XAA": 4379,
  "XAj": 4380,
  "XAp": 4381,
  "XAs": 4382,
  "XTb": 4383,
  "Xdr": 4384,
  "Xnt": 4385,
  "XpAw": 4386,
  "Xpa": 4387,
  "Xpn": 4388,
  "Xss": 4389,
  "Xti": 4390,
  "aAp": 4391,
  "aAt": 4392,
  "aDAj": 4393,
  "aDdjw": 4394,
  "aDjaDj": 4395,
  "aHaj": 4396,
  "aHwtj": 4397,
  "aSaS": 4398,
  "aSgAjw": 4399,
  "aXnwtj": 4400,
  "aab": 4401,
  "aaj": 4402,
  "aawj": 4403,
  "abAbA": 4404,
  "add": 4405,
  "adn": 4406,
  "ady": 4407,
  "afj": 4408,
  "afq": 4409,
  "agrtb": 4410,
  "agw": 4411,
  "ajn": 4412,
  "ak": 4413,
  "amw": 4414,
  "anDw": 4415,
  "anj": 4416,
  "ankk": 4417,
  "antA": 4418,
  "anxt": 4419,
  "apS": 4420,
  "apj": 4421,
  "aprw": 4422,
  "apy": 4423,
  "aqi": 4424,
  "aqj": 4425,
  "arqA": 4426,
  "arry": 4427,
  "as": 4428,
  "awnw": 4429,
  "axjw": 4430,
  "bAD": 4431,
  "bAbAt": 4432,
  "bAbAwt": 4433,
  "bAgA": 4434,
  "bStA": 4435,
  "bXn": 4436,
  "bai": 4437,
  "bast": 4438,
  "bgAs": 4439,
  "bgAw": 4440,
  "bjAj": 4441,
  "bjAy": 4442,
  "bjm": 4443,
  "bmbw": 4444,
  "bndw": 4445,
  "bnu": 4446,
  "bpA": 4447,
  "bqn": 4448,
  "brbr": 4449,
  "brkt": 4450,
  "brq": 4451,
  "btS": 4452,
  "btbt": 4453,
  "bwpwy": 4454,
  "bx": 4455,
  "byA": 4456,
  "bzj": 4457,
  "bzn": 4458,
  "dAs": 4459,
  "dHrj": 4460,
  "dHw": 4461,
  "dSdS": 4462,
  "dbj": 4463,
  "dfA": 4464,
  "dgAm": 4465,
  "dgj": 4466,
  "dkA": 4467,
  "dmDy": 4468,
  "dmHw": 4469,
  "dnd": 4470,
  "dpj": 4471,
  "dqA": 4472,
  "dqrw": 4473,
  "dqw": 4474,
  "drj": 4475,
  "drjw": 4476,
  "drpw": 4477,
  "drr": 4478,
  "dsr": 4479,
  "dwdy": 4480,
  "faA": 4481,
  "fay": 4482,
  "fdqA": 4483,
  "ff": 4484,
  "fgn": 4485,
  "fqAw": 4486,
  "fs": 4487,
  "fss": 4488,
  "ftti": 4489,
  "gAHsj": 4490,
  "gAHy": 4491,
  "gAgA": 4492,
  "gAj": 4493,
  "gAp": 4494,
  "gbtjw": 4495,
  "gott": 4496,
  "grb": 4497,
  "grgy": 4498,
  "gsm": 4499,
  "gsy": 4500,
  "gt": 4501,
  "gwf": 4502,
  "hAbj": 4503,
  "hAbq": 4504,
  "hAbu": 4505,
  "hAf": 4506,
  "hAms": 4507,
  "hAqA": 4508,
  "hArp": 4509,
  "hAtyw": 4510,
  "hAyt": 4511,
  "hby": 4512,
  "hdhd": 4513,
  "hf": 4514,
  "hhb": 4515,
  "hhy": 4516,
  "hjp": 4517,
  "hmT": 4518,
  "hmh": 4519,
  "hnd": 4520,
  "hnq": 4521,
  "hpnn": 4522,
  "hq": 4523,
  "hs": 4524,
  "htA": 4525,
  "htht": 4526,
  "htpw": 4527,
  "hwi": 4528,
  "hwty": 4529,
  "hwv": 4530,
  "iDA": 4531,
  "iXA": 4532,
  "iaa": 4533,
  "ianw": 4534,
  "ibA": 4535,
  "ibSt": 4536,
  "ibw": 4537,
  "idm": 4538,
  "ihAfy": 4539,
  "ihAyn": 4540,
  "ii": 4541,
  "ik": 4542,
  "imsk": 4543,
  "inHw": 4544,
  "ind": 4545,
  "intnt": 4546,
  "inty": 4547,
  "iptn": 4548,
  "iqHw": 4549,
  "iqd": 4550,
  "irnAm": 4551,
  "irnn": 4552,
  "irpw": 4553,
  "isHm": 4554,
  "ismri": 4555,
  "itt": 4556,
  "itw": 4557,
  "iwh": 4558,
  "iwnr": 4559,
  "iwti": 4560,
  "jAD": 4561,
  "jAH": 4562,
  "jAnr": 4563,
  "jArj": 4564,
  "jArw": 4565,
  "jAtjw": 4566,
  "jAtt": 4567,
  "jAwy": 4568,
  "jAxw": 4569,
  "jAz": 4570,
  "jHa": 4571,
  "jHm": 4572,
  "jSrw": 4573,
  "jSt": 4574,
  "jTmw": 4575,
  "jTy": 4576,
  "jaanj": 4577,
  "janj": 4578,
  "janw": 4579,
  "jay": 4580,
  "jbjw": 4581,
  "jbkA": 4582,
  "jbx": 4583,
  "jdAt": 4584,
  "jdd": 4585,
  "jdmj": 4586,
  "jdnw": 4587,
  "jdt": 4588,
  "jdx": 4589,
  "jfdi": 4590,
  "jfn": 4591,
  "jft": 4592,
  "jg": 4593,
  "jhAb": 4594,
  "jhAm": 4595,
  "jhhy": 4596,
  "jkA": 4597,
  "jki": 4598,
  "jknw": 4599,
  "jmAw": 4600,
  "jmHj": 4601,
  "jmS": 4602,
  "jmby": 4603,
  "jmjm": 4604,
  "jnA": 4605,
  "jnDw": 4606,
  "jnHw": 4607,
  "jnbA": 4608,
  "jnbw": 4609,
  "jnnt": 4610,
  "jnsj": 4611,
  "jntnt": 4612,
  "jntw": 4613,
  "jpA": 4614,
  "jpATj": 4615,
  "jpwj": 4616,
  "jqH": 4617,
  "jqh": 4618,
  "jqm": 4619,
  "jrjt": 4620,
  "jsTwy": 4621,
  "jsfj": 4622,
  "jsfy": 4623,
  "jstn": 4624,
  "jswt": 4625,
  "jtHw": 4626,
  "jtjtj": 4627,
  "jtx": 4628,
  "jwAw": 4629,
  "jwSS": 4630,
  "jwbw": 4631,
  "jwdj": 4632,
  "jwdw": 4633,
  "jwgr": 4634,
  "jwnry": 4635,
  "jwp": 4636,
  "jwpl": 4637,
  "jwrw": 4638,
  "jwtjw": 4639,
  "jxma": 4640,
  "jxy": 4641,
  "jzt": 4642,
  "kAfy": 4643,
  "kAiA": 4644,
  "kAjry": 4645,
  "kArty": 4646,
  "kAwt": 4647,
  "kHss": 4648,
  "kSr": 4649,
  "kSw": 4650,
  "kfAy": 4651,
  "kft": 4652,
  "khAbw": 4653,
  "kjA": 4654,
  "kkj": 4655,
  "kmj": 4656,
  "kmkm": 4657,
  "kmm": 4658,
  "kmw": 4659,
  "kmwj": 4660,
  "kni": 4661,
  "knmTwhr": 4662,
  "knmm": 4663,
  "kpnj": 4664,
  "krmt": 4665,
  "krt": 4666,
  "krxn": 4667,
  "ksbw": 4668,
  "ktty": 4669,
  "kyky": 4670,
  "kzi": 4671,
  "mAHj": 4672,
  "mAHw": 4673,
  "mATA": 4674,
  "mAaq": 4675,
  "mAtjr": 4676,
  "mDt": 4677,
  "mDwj": 4678,
  "mHny": 4679,
  "mHs": 4680,
  "mHyt": 4681,
  "mSaq": 4682,
  "mSayti": 4683,
  "mSdd": 4684,
  "mSrr": 4685,
  "maAa": 4686,
  "maDA": 4687,
  "mab": 4688,
  "mads": 4689,
  "maj": 4690,
  "man": 4691,
  "mand": 4692,
  "maxA": 4693,
  "mb": 4694,
  "mby": 4695,
  "mdt": 4696,
  "mf": 4697,
  "mfAk": 4698,
  "mgg": 4699,
  "mhAwt": 4700,
  "mhj": 4701,
  "mjAz": 4702,
  "mjb": 4703,
  "mjm": 4704,
  "mjnn": 4705,
  "mjy": 4706,
  "mkk": 4707,
  "mkrjw": 4708,
  "mktr": 4709,
  "mnDr": 4710,
  "mnHt": 4711,
  "mndyw": 4712,
  "mnhD": 4713,
  "mntst": 4714,
  "mnttn": 4715,
  "mnwt": 4716,
  "mpa": 4717,
  "mqar": 4718,
  "mqj": 4719,
  "mqn": 4720,
  "mqq": 4721,
  "mrHnn": 4722,
  "mrS": 4723,
  "mriA": 4724,
  "mrsw": 4725,
  "mryt": 4726,
  "msS": 4727,
  "msSA": 4728,
  "msb": 4729,
  "msjw": 4730,
  "mskj": 4731,
  "mstt": 4732,
  "msx": 4733,
  "msxA": 4734,
  "mtAy": 4735,
  "mtf": 4736,
  "mtmt": 4737,
  "mtrwy": 4738,
  "mttj": 4739,
  "mxnti": 4740,
  "mxntj": 4741,
  "mxt": 4742,
  "myt": 4743,
  "nAHA": 4744,
  "nAp": 4745,
  "nDd": 4746,
  "nDj": 4747,
  "nDmm": 4748,
  "nDmw": 4749,
  "nDrj": 4750,
  "nHj": 4751,
  "nHni": 4752,
  "nHtm": 4753,
  "nHy": 4754,
  "nSS": 4755,
  "nSbSb": 4756,
  "nSf": 4757,
  "nSj": 4758,
  "nSmw": 4759,
  "nSnS": 4760,
  "nSnn": 4761,
  "nSy": 4762,
  "nSz": 4763,
  "nTT": 4764,
  "nTb": 4765,
  "nTrw": 4766,
  "nXX": 4767,
  "nag": 4768,
  "naj": 4769,
  "narn": 4770,
  "nax": 4771,
  "ndbdb": 4772,
  "ndm": 4773,
  "ndw": 4774,
  "nfaj": 4775,
  "ngb": 4776,
  "ngng": 4777,
  "nhAj": 4778,
  "nhAjs": 4779,
  "nhAy": 4780,
  "nhdh": 4781,
  "nhdhd": 4782,
  "nhjs": 4783,
  "nhq": 4784,
  "njAj": 4785,
  "njAw": 4786,
  "nkAkA": 4787,
  "nkjw": 4788,
  "nmmj": 4789,
  "nmty": 4790,
  "nnn": 4791,
  "npApA": 4792,
  "npn": 4793,
  "nprj": 4794,
  "npt": 4795,
  "nqw": 4796,
  "nsA": 4797,
  "nsp": 4798,
  "nsq": 4799,
  "ntA": 4800,
  "ntbw": 4801,
  "ntrw": 4802,
  "nwHH": 4803,
  "nwtwt": 4804,
  "nxbw": 4805,
  "nxi": 4806,
  "nxr": 4807,
  "nzA": 4808,
  "pAHyw": 4809,
  "pAar": 4810,
  "pApA": 4811,
  "pAqi": 4812,
  "pAwa": 4813,
  "pDpD": 4814,
  "pDty": 4815,
  "pHd": 4816,
  "pHti": 4817,
  "pHtj": 4818,
  "pSi": 4819,
  "pSs": 4820,
  "pT": 4821,
  "par": 4822,
  "pat": 4823,
  "pfAw": 4824,
  "pfss": 4825,
  "ph": 4826,
  "pit": 4827,
  "pjAy": 4828,
  "pjp": 4829,
  "pnj": 4830,
  "ppi": 4831,
  "ppw": 4832,
  "prT": 4833,
  "psDj": 4834,
  "pst": 4835,
  "pwgA": 4836,
  "pwjw": 4837,
  "pwrm": 4838,
  "pypnw": 4839,
  "pzf": 4840,
  "qAm": 4841,
  "qAmy": 4842,
  "qAqAw": 4843,
  "qDD": 4844,
  "qDr": 4845,
  "qba": 4846,
  "qbsw": 4847,
  "qdf": 4848,
  "qdnA": 4849,
  "qfdr": 4850,
  "qmAmw": 4851,
  "qmAy": 4852,
  "qrjaw": 4853,
  "qrjw": 4854,
  "qrn": 4855,
  "qrrty": 4856,
  "qrsw": 4857,
  "qtm": 4858,
  "rDt": 4859,
  "rHr": 4860,
  "rSp": 4861,
  "rSpw": 4862,
  "rSwj": 4863,
  "rSy": 4864,
  "ray": 4865,
  "rdHw": 4866,
  "rfr": 4867,
  "rh": 4868,
  "rhb": 4869,
  "rhj": 4870,
  "rhny": 4871,
  "rjA": 4872,
  "rjrj": 4873,
  "rjw": 4874,
  "rjwm": 4875,
  "rkjw": 4876,
  "rmnj": 4877,
  "rmrm": 4878,
  "rnpt": 4879,
  "rnpwt": 4880,
  "rpj": 4881,
  "rqrq": 4882,
  "rrty": 4883,
  "rry": 4884,
  "rssy": 4885,
  "rsu": 4886,
  "rwhAwj": 4887,
  "rwjAj": 4888,
  "rwn": 4889,
  "rwr": 4890,
  "rwt": 4891,
  "rxtj": 4892,
  "sAdd": 4893,
  "sAj": 4894,
  "sAkA": 4895,
  "sAn": 4896,
  "sAp": 4897,
  "sAqH": 4898,
  "sAry": 4899,
  "sAsw": 4900,
  "sAwt": 4901,
  "sDa": 4902,
  "sDmj": 4903,
  "sDt": 4904,
  "sHH": 4905,
  "sHjH": 4906,
  "sHmy": 4907,
  "sHq": 4908,
  "sHwA": 4909,
  "sHwj": 4910,
  "sTf": 4911,
  "sTnn": 4912,
  "sTr": 4913,
  "sXAw": 4914,
  "sXAy": 4915,
  "sXk": 4916,
  "sXt": 4917,
  "saD": 4918,
  "saa": 4919,
  "sabA": 4920,
  "san": 4921,
  "sart": 4922,
  "sarw": 4923,
  "sbb": 4924,
  "sbd": 4925,
  "sbg": 4926,
  "sbjAt": 4927,
  "sbjn": 4928,
  "sbtt": 4929,
  "sdbj": 4930,
  "sdn": 4931,
  "sdnm": 4932,
  "sds": 4933,
  "sdwn": 4934,
  "sdy": 4935,
  "sfi": 4936,
  "sfw": 4937,
  "sfxy": 4938,
  "sgAb": 4939,
  "sgAp": 4940,
  "sgi": 4941,
  "sgrg": 4942,
  "sipty": 4943,
  "siwt": 4944,
  "sjArr": 4945,
  "sjAw": 4946,
  "sjdi": 4947,
  "sjq": 4948,
  "sjsj": 4949,
  "skAw": 4950,
  "skmm": 4951,
  "skmyt": 4952,
  "sksn": 4953,
  "sktj": 4954,
  "smAj": 4955,
  "smAjr": 4956,
  "smAmw": 4957,
  "smnmn": 4958,
  "smnn": 4959,
  "smtmt": 4960,
  "snA": 4961,
  "snHw": 4962,
  "snhd": 4963,
  "snhs": 4964,
  "snhsi": 4965,
  "snjhA": 4966,
  "snjt": 4967,
  "snjw": 4968,
  "snni": 4969,
  "snwy": 4970,
  "snxbxb": 4971,
  "snxn": 4972,
  "spHt": 4973,
  "spS": 4974,
  "spri": 4975,
  "sqAH": 4976,
  "sqfn": 4977,
  "sqnd": 4978,
  "srDy": 4979,
  "sri": 4980,
  "srwjj": 4981,
  "ssDm": 4982,
  "ssbj": 4983,
  "sswr": 4984,
  "sswrj": 4985,
  "stAw": 4986,
  "stAy": 4987,
  "stXi": 4988,
  "stjw": 4989,
  "stk": 4990,
  "stpp": 4991,
  "swAww": 4992,
  "swHw": 4993,
  "swSr": 4994,
  "swjA": 4995,
  "swjb": 4996,
  "sxbx": 4997,
  "sxbxb": 4998,
  "sxnn": 4999,
  "sxtiw": 5000,
  "sxwd": 5001,
  "sxwz": 5002,
  "syf": 5003,
  "syfy": 5004,
  "szA": 5005,
  "szwn": 5006,
  "tAHn": 5007,
  "tAHw": 5008,
  "tATnn": 5009,
  "tAwy": 5010,
  "tHA": 5011,
  "tHs": 5012,
  "tSA": 5013,
  "tSjw": 5014,
  "tby": 5015,
  "tfj": 5016,
  "tgA": 5017,
  "thAj": 5018,
  "thb": 5019,
  "thh": 5020,
  "tjnr": 5021,
  "tjsw": 5022,
  "tjtw": 5023,
  "tkAt": 5024,
  "tkkj": 5025,
  "tkm": 5026,
  "tkrbr": 5027,
  "tks": 5028,
  "tktk": 5029,
  "tmtm": 5030,
  "tmy": 5031,
  "tnTA": 5032,
  "tndu": 5033,
  "tnti": 5034,
  "tntm": 5035,
  "tpr": 5036,
  "twh": 5037,
  "twj": 5038,
  "twjA": 5039,
  "txr": 5040,
  "txy": 5041,
  "wADj": 5042,
  "wAHj": 5043,
  "wAT": 5044,
  "wAd": 5045,
  "wAj": 5046,
  "wAnb": 5047,
  "wAnr": 5048,
  "wAsm": 5049,
  "wAsrkn": 5050,
  "wAsty": 5051,
  "wDAj": 5052,
  "wDHj": 5053,
  "wDHw": 5054,
  "wDt": 5055,
  "wHaw": 5056,
  "wSi": 5057,
  "wSt": 5058,
  "wTn": 5059,
  "wTsw": 5060,
  "wabw": 5061,
  "wafw": 5062,
  "wbD": 5063,
  "wbt": 5064,
  "wgAgg": 5065,
  "whAs": 5066,
  "whAsj": 5067,
  "wjw": 5068,
  "wnT": 5069,
  "wnTr": 5070,
  "wnr": 5071,
  "wns": 5072,
  "wpd": 5073,
  "wpy": 5074,
  "wrdw": 5075,
  "wsrk": 5076,
  "wstnj": 5077,
  "wtr": 5078,
  "wtwA": 5079,
  "wtwt": 5080,
  "wz": 5081,
  "wzT": 5082,
  "wzf": 5083,
  "wzm": 5084,
  "xAbb": 5085,
  "xAmm": 5086,
  "xAnn": 5087,
  "xAsww": 5088,
  "xAsy": 5089,
  "xAyb": 5090,
  "xAz": 5091,
  "xarw": 5092,
  "xbt": 5093,
  "xbz": 5094,
  "xmj": 5095,
  "xmnty": 5096,
  "xnfy": 5097,
  "xnmsw": 5098,
  "xnpj": 5099,
  "xnri": 5100,
  "xnwt": 5101,
  "xpA": 5102,
  "xpj": 5103,
  "xpt": 5104,
  "xpwS": 5105,
  "xrm": 5106,
  "xsAy": 5107,
  "xsdD": 5108,
  "xsy": 5109,
  "xtTn": 5110,
  "xwwy": 5111,
  "xxm": 5112,
  "yHj": 5113,
  "yHm": 5114,
  "ya": 5115,
  "ybr": 5116,
  "yj": 5117,
  "ynb": 5118,
  "ynr": 5119,
  "yns": 5120,
  "yrmt": 5121,
  "ytpl": 5122,
  "ytw": 5123,
  "ywpl": 5124,
  "zHzH": 5125,
  "zXi": 5126,
  "zXr": 5127,
  "zbw": 5128,
  "zkzk": 5129,
  "zmnnw": 5130,
  "znq": 5131,
  "zpj": 5132,
  "zpw": 5133,
  "ztjw": 5134,
  "zty": 5135,
  "zwnu": 5136,
  "zwnw": 5137,
  "zwrj": 5138,
  "zwzw": 5139,
  "zxr": 5140,
  "zxzx": 5141,
  "ADw": 5142,
  "AHAHj": 5143,
  "ASb": 5144,
  "ASjH": 5145,
  "ASn": 5146,
  "ASrt": 5147,
  "ATA": 5148,
  "ATj": 5149,
  "AX": 5150,
  "AXp": 5151,
  "Aaab": 5152,
  "Aaaj": 5153,
  "AaanA": 5154,
  "Aaf": 5155,
  "Abdj": 5156,
  "Abdww": 5157,
  "Abnn": 5158,
  "Abt": 5159,
  "Abwy": 5160,
  "Abxx": 5161,
  "Add": 5162,
  "Adf": 5163,
  "Adm": 5164,
  "Adp": 5165,
  "Adw": 5166,
  "Afj": 5167,
  "Afr": 5168,
  "Aft": 5169,
  "Afy": 5170,
  "AgAp": 5171,
  "Agbgb": 5172,
  "Agsw": 5173,
  "AhAm": 5174,
  "Ahb": 5175,
  "Ahm": 5176,
  "Ahw": 5177,
  "Ahwt": 5178,
  "Ajj": 5179,
  "Ajrr": 5180,
  "AjwAj": 5181,
  "AkAj": 5182,
  "Aky": 5183,
  "Amaw": 5184,
  "AmjA": 5185,
  "Amsw": 5186,
  "Anr": 5187,
  "ApH": 5188,
  "Ark": 5189,
  "Arktkstk": 5190,
  "Arw": 5191,
  "Arwtibw": 5192,
  "Ary": 5193,
  "Atjwt": 5194,
  "Atpw": 5195,
  "Att": 5196,
  "Atwtw": 5197,
  "Au": 5198,
  "AwAr": 5199,
  "AwAw": 5200,
  "Awjt": 5201,
  "Awmw": 5202,
  "Awrtbi": 5203,
  "Awy": 5204,
  "Axf": 5205,
  "Axx": 5206,
  "Axy": 5207,
  "Ayw": 5208,
  "Aywr": 5209,
  "Azb": 5210,
  "DAH": 5211,
  "DAa": 5212,
  "DAbH": 5213,
  "DAbqbq": 5214,
  "DAhA": 5215,
  "DAhAy": 5216,
  "DAhj": 5217,
  "DAis": 5218,
  "DAmAa": 5219,
  "DAma": 5220,
  "DApr": 5221,
  "DArA": 5222,
  "DArj": 5223,
  "DAssw": 5224,
  "DAtitAkAti": 5225,
  "DAtj": 5226,
  "DAwAti": 5227,
  "DAyj": 5228,
  "DDnn": 5229,
  "DHwti": 5230,
  "DHy": 5231,
  "DSr": 5232,
  "DaDa": 5233,
  "Daaj": 5234,
  "Dad": 5235,
  "Dadd": 5236,
  "Damw": 5237,
  "Daq": 5238,
  "Darj": 5239,
  "Datt": 5240,
  "DbAj": 5241,
  "Dbt": 5242,
  "Dbwj": 5243,
  "DdDd": 5244,
  "DdHw": 5245,
  "Dddi": 5246,
  "DddnnA": 5247,
  "Ddfy": 5248,
  "Ddk": 5249,
  "Ddpt": 5250,
  "Ddtj": 5251,
  "Ddtw": 5252,
  "Ddv": 5253,
  "DfDfDf": 5254,
  "Dfa": 5255,
  "Dfj": 5256,
  "Dfr": 5257,
  "Dft": 5258,
  "Dhw": 5259,
  "Djw": 5260,
  "Dmj": 5261,
  "Dmr": 5262,
  "Dmtn": 5263,
  "Dna": 5264,
  "Dnb": 5265,
  "Dnir": 5266,
  "Dnm": 5267,
  "Dnrm": 5268,
  "Dns": 5269,
  "Dp": 5270,
  "DpindA": 5271,
  "Dprtj": 5272,
  "Dpy": 5273,
  "DrDry": 5274,
  "Dra": 5275,
  "Dram": 5276,
  "Drf": 5277,
  "DrjDr": 5278,
  "Drn": 5279,
  "Drp": 5280,
  "Drpt": 5281,
  "Drr": 5282,
  "Dsjw": 5283,
  "Dsnw": 5284,
  "Dsrj": 5285,
  "Dswj": 5286,
  "Dtf": 5287,
  "Dwjwj": 5288,
  "Dws": 5289,
  "Dwt": 5290,
  "Dwy": 5291,
  "Dxn": 5292,
  "Dzf": 5293,
  "HAD": 5294,
  "HAHA": 5295,
  "HAaa": 5296,
  "HAbi": 5297,
  "HAbt": 5298,
  "HAdg": 5299,
  "HAdi": 5300,
  "HAgj": 5301,
  "HAk": 5302,
  "HAmw": 5303,
  "HApj": 5304,
  "HApp": 5305,
  "HApt": 5306,
  "HAqAj": 5307,
  "HArr": 5308,
  "HAswsn": 5309,
  "HAwt": 5310,
  "HAywj": 5311,
  "HDDwj": 5312,
  "HDnHDn": 5313,
  "HDtj": 5314,
  "HHtjtjsw": 5315,
  "HHw": 5316,
  "HTr": 5317,
  "HTt": 5318,
  "HaAw": 5319,
  "Haawy": 5320,
  "Harw": 5321,
  "Hawjy": 5322,
  "HbAbA": 5323,
  "HbD": 5324,
  "HbH": 5325,
  "Hbd": 5326,
  "Hbnnwt": 5327,
  "HbrDt": 5328,
  "Hbrt": 5329,
  "Hbsj": 5330,
  "Hddy": 5331,
  "Hdi": 5332,
  "Hdj": 5333,
  "Hdq": 5334,
  "Hdt": 5335,
  "HfDA": 5336,
  "Hfnw": 5337,
  "Hiw": 5338,
  "HjH": 5339,
  "Hjfg": 5340,
  "Hjjj": 5341,
  "Hjkn": 5342,
  "Hjm": 5343,
  "Hjpy": 5344,
  "Hjtjw": 5345,
  "Hjw": 5346,
  "HknH": 5347,
  "Hknj": 5348,
  "Hknkn": 5349,
  "Hkwn": 5350,
  "HmATT": 5351,
  "HmAmw": 5352,
  "HmAmy": 5353,
  "HmAw": 5354,
  "Hma": 5355,
  "Hmaw": 5356,
  "Hmgj": 5357,
  "Hmsj": 5358,
  "Hmsy": 5359,
  "Hmtjw": 5360,
  "Hmwt": 5361,
  "HnH": 5362,
  "HnTj": 5363,
  "Hngj": 5364,
  "Hnnks": 5365,
  "Hnnksty": 5366,
  "Hnny": 5367,
  "Hnp": 5368,
  "HnwH": 5369,
  "Hnwt": 5370,
  "Hnwtj": 5371,
  "Hnwy": 5372,
  "Hnytj": 5373,
  "HpHp": 5374,
  "Hpa": 5375,
  "Hpn": 5376,
  "Hpq": 5377,
  "HqAt": 5378,
  "HqAw": 5379,
  "Hqrj": 5380,
  "Hqrjw": 5381,
  "HrHr": 5382,
  "HrTs": 5383,
  "Hrbs": 5384,
  "Hrhr": 5385,
  "HrpgkSrSb": 5386,
  "Hrpl": 5387,
  "Hrrj": 5388,
  "Hrrwt": 5389,
  "Hrst": 5390,
  "Hsbd": 5391,
  "Hsbp": 5392,
  "Hsbw": 5393,
  "Hsqq": 5394,
  "Hswt": 5395,
  "Hswy": 5396,
  "HtAy": 5397,
  "Htb": 5398,
  "Htptj": 5399,
  "Htpwt": 5400,
  "Htpy": 5401,
  "Htrt": 5402,
  "HwAHwA": 5403,
  "HwAw": 5404,
  "Hwnj": 5405,
  "Hwrn": 5406,
  "Hwry": 5407,
  "Hws": 5408,
  "HwtA": 5409,
  "Hwywy": 5410,
  "Hyti": 5411,
  "Hzjj": 5412,
  "Hzk": 5413,
  "Hzmny": 5414,
  "Hzr": 5415,
  "IsD": 5416,
  "On": 5417,
  "SAAw": 5418,
  "SASAa": 5419,
  "SAar": 5420,
  "SAbAkA": 5421,
  "SAbdy": 5422,
  "SAbwd": 5423,
  "SAbwti": 5424,
  "SAdA": 5425,
  "SAk": 5426,
  "SAkA": 5427,
  "SAmst": 5428,
  "SAmxAbw": 5429,
  "SAmy": 5430,
  "SAq": 5431,
  "SAqA": 5432,
  "SArS": 5433,
  "SAty": 5434,
  "SAwA": 5435,
  "SAwAb": 5436,
  "SAwb": 5437,
  "SAyt": 5438,
  "SDm": 5439,
  "SDtm": 5440,
  "SSrm": 5441,
  "SSt": 5442,
  "STn": 5443,
  "STyt": 5444,
  "SaA": 5445,
  "SaD": 5446,
  "SaT": 5447,
  "Safj": 5448,
  "Satj": 5449,
  "Sbt": 5450,
  "SdHw": 5451,
  "Sdjw": 5452,
  "Sdm": 5453,
  "Sdty": 5454,
  "Sfi": 5455,
  "Sftw": 5456,
  "Sgnn": 5457,
  "Shr": 5458,
  "Sir": 5459,
  "Sjw": 5460,
  "Sk": 5461,
  "Sknsrhtw": 5462,
  "Skr": 5463,
  "SmS": 5464,
  "Smat": 5465,
  "Smbr": 5466,
  "Smd": 5467,
  "Smjw": 5468,
  "Smmy": 5469,
  "Smt": 5470,
  "Smy": 5471,
  "Smyk": 5472,
  "SnDd": 5473,
  "Snaa": 5474,
  "Snat": 5475,
  "Snbty": 5476,
  "Snjs": 5477,
  "Snsw": 5478,
  "Snwtj": 5479,
  "Snwy": 5480,
  "SpA": 5481,
  "SpT": 5482,
  "Spi": 5483,
  "Spsjt": 5484,
  "Sptj": 5485,
  "Spv": 5486,
  "Sqb": 5487,
  "SrStkt": 5488,
  "Srd": 5489,
  "SrgH": 5490,
  "Srgt": 5491,
  "SsdA": 5492,
  "Sst": 5493,
  "StAdj": 5494,
  "StAi": 5495,
  "StSt": 5496,
  "Stbw": 5497,
  "Stt": 5498,
  "SwAww": 5499,
  "Swbw": 5500,
  "Sws": 5501,
  "Swwy": 5502,
  "Swyt": 5503,
  "Sxpi": 5504,
  "Szr": 5505,
  "TAA": 5506,
  "TATA": 5507,
  "TAfy": 5508,
  "TAhmw": 5509,
  "TAnj": 5510,
  "TArj": 5511,
  "TAt": 5512,
  "TAtjw": 5513,
  "TAtn": 5514,
  "TAwm": 5515,
  "TAwt": 5516,
  "TAzj": 5517,
  "THHwt": 5518,
  "THsb": 5519,
  "Tbb": 5520,
  "Tbhn": 5521,
  "Tby": 5522,
  "Tfjdn": 5523,
  "Tfjw": 5524,
  "Tfrr": 5525,
  "ThTh": 5526,
  "Thb": 5527,
  "Thi": 5528,
  "Thm": 5529,
  "Thn": 5530,
  "Thnw": 5531,
  "Thw": 5532,
  "Tit": 5533,
  "TjAtj": 5534,
  "Tjrf": 5535,
  "Tjw": 5536,
  "Tkm": 5537,
  "Tkn": 5538,
  "TknS": 5539,
  "Tl": 5540,
  "TmHy": 5541,
  "TmTj": 5542,
  "Tmj": 5543,
  "TmpAw": 5544,
  "Tmss": 5545,
  "Tmsw": 5546,
  "Tmt": 5547,
  "TnA": 5548,
  "TnHr": 5549,
  "Tnh": 5550,
  "Tnnj": 5551,
  "Tnnt": 5552,
  "Tntm": 5553,
  "Tnu": 5554,
  "TpHw": 5555,
  "Tpnpn": 5556,
  "Tpw": 5557,
  "TrH": 5558,
  "Trjwy": 5559,
  "Trn": 5560,
  "Trry": 5561,
  "Trs": 5562,
  "Tsb": 5563,
  "Tstj": 5564,
  "Tstn": 5565,
  "Ttr": 5566,
  "Ttwj": 5567,
  "Ttwtj": 5568,
  "TwTkn": 5569,
  "Twf": 5570,
  "Twj": 5571,
  "TwjA": 5572,
  "Twrj": 5573,
  "Twynn": 5574,
  "Tyw": 5575,
  "TzTz": 5576,
  "Verb": 5577,
  "XAXA": 5578,
  "XAbb": 5579,
  "XAi": 5580,
  "XArw": 5581,
  "XAwj": 5582,
  "XT": 5583,
  "XaA": 5584,
  "Xajw": 5585,
  "Xar": 5586,
  "Xaw": 5587,
  "XawAy": 5588,
  "Xbt": 5589,
  "Xdi": 5590,
  "Xi": 5591,
  "Xk": 5592,
  "Xma": 5593,
  "Xmm": 5594,
  "Xmn": 5595,
  "XnX": 5596,
  "Xnnj": 5597,
  "Xnwj": 5598,
  "Xnwnn": 5599,
  "Xpj": 5600,
  "Xpt": 5601,
  "Xrdw": 5602,
  "Xrp": 5603,
  "Xrr": 5604,
  "XsAj": 5605,
  "XsAw": 5606,
  "Xsr": 5607,
  "Xtti": 5608,
  "aAd": 5609,
  "aAf": 5610,
  "aAfy": 5611,
  "aAgA": 5612,
  "aAgAs": 5613,
  "aAgAsw": 5614,
  "aAgsw": 5615,
  "aAh": 5616,
  "aAmj": 5617,
  "aAmw": 5618,
  "aDdw": 5619,
  "aDj": 5620,
  "aDmm": 5621,
  "aDy": 5622,
  "aHAwtj": 5623,
  "aHai": 5624,
  "aHar": 5625,
  "aHb": 5626,
  "aHi": 5627,
  "aHm": 5628,
  "aSAw": 5629,
  "aSi": 5630,
  "aSjw": 5631,
  "aSqj": 5632,
  "aXb": 5633,
  "aXnw": 5634,
  "aXy": 5635,
  "aafi": 5636,
  "aam": 5637,
  "aamy": 5638,
  "aany": 5639,
  "abXbX": 5640,
  "abaw": 5641,
  "abnx": 5642,
  "adt": 5643,
  "afAj": 5644,
  "afAw": 5645,
  "afAy": 5646,
  "afa": 5647,
  "agnj": 5648,
  "agnn": 5649,
  "ahr": 5650,
  "aip": 5651,
  "ajw": 5652,
  "aky": 5653,
  "amAmw": 5654,
  "amAw": 5655,
  "amaA": 5656,
  "amj": 5657,
  "amjA": 5658,
  "amq": 5659,
  "amt": 5660,
  "anDty": 5661,
  "anH": 5662,
  "anTj": 5663,
  "ana": 5664,
  "ananxj": 5665,
  "anay": 5666,
  "anbr": 5667,
  "anbw": 5668,
  "andw": 5669,
  "ankkw": 5670,
  "annt": 5671,
  "anrki": 5672,
  "antw": 5673,
  "anwnA": 5674,
  "anws": 5675,
  "any": 5676,
  "apap": 5677,
  "aqAA": 5678,
  "aqa": 5679,
  "aqn": 5680,
  "aqwj": 5681,
  "arfj": 5682,
  "arfn": 5683,
  "arrn": 5684,
  "arwt": 5685,
  "ast": 5686,
  "atj": 5687,
  "atrf": 5688,
  "atxww": 5689,
  "atxy": 5690,
  "awAw": 5691,
  "awa": 5692,
  "awnH": 5693,
  "awt": 5694,
  "awtj": 5695,
  "awty": 5696,
  "axAy": 5697,
  "axmt": 5698,
  "axn": 5699,
  "axnj": 5700,
  "axtwy": 5701,
  "axxA": 5702,
  "aynn": 5703,
  "az": 5704,
  "aztrt": 5705,
  "bAbAy": 5706,
  "bAbwj": 5707,
  "bAgAy": 5708,
  "bAgsw": 5709,
  "bAiw": 5710,
  "bAjAwk": 5711,
  "bAkjwj": 5712,
  "bAndw": 5713,
  "bAnn": 5714,
  "bArs": 5715,
  "bArst": 5716,
  "bAxn": 5717,
  "bDAw": 5718,
  "bDt": 5719,
  "bHH": 5720,
  "bHdw": 5721,
  "bHnr": 5722,
  "bHrnkr": 5723,
  "bHsw": 5724,
  "bHt": 5725,
  "bSb": 5726,
  "bSj": 5727,
  "bStj": 5728,
  "bSw": 5729,
  "bTAwy": 5730,
  "baHt": 5731,
  "baTn": 5732,
  "bagA": 5733,
  "bart": 5734,
  "batn": 5735,
  "bax": 5736,
  "bbn": 5737,
  "bdH": 5738,
  "bdbd": 5739,
  "bdj": 5740,
  "bdydy": 5741,
  "bfn": 5742,
  "bgAy": 5743,
  "bgb": 5744,
  "bgz": 5745,
  "bhd": 5746,
  "bhks": 5747,
  "bhnj": 5748,
  "biwk": 5749,
  "bjAbA": 5750,
  "bjTtw": 5751,
  "bjTw": 5752,
  "bjb": 5753,
  "bjdj": 5754,
  "bjj": 5755,
  "bjnrj": 5756,
  "bjnw": 5757,
  "bjr": 5758,
  "bjtt": 5759,
  "bjw": 5760,
  "bjwn": 5761,
  "bkAw": 5762,
  "bki": 5763,
  "bkk": 5764,
  "bkn": 5765,
  "bky": 5766,
  "bnDy": 5767,
  "bnana": 5768,
  "bng": 5769,
  "bngA": 5770,
  "bniA": 5771,
  "bnjA": 5772,
  "bnjw": 5773,
  "bnnt": 5774,
  "bnri": 5775,
  "bnrnj": 5776,
  "bns": 5777,
  "bnty": 5778,
  "bpr": 5779,
  "bqA": 5780,
  "bqa": 5781,
  "bqbq": 5782,
  "bqr": 5783,
  "bqy": 5784,
  "bqyt": 5785,
  "bri": 5786,
  "brj": 5787,
  "brktTw": 5788,
  "brs": 5789,
  "brwt": 5790,
  "bsA": 5791,
  "btk": 5792,
  "btktk": 5793,
  "btq": 5794,
  "btw": 5795,
  "bty": 5796,
  "btyt": 5797,
  "bwAw": 5798,
  "bwAy": 5799,
  "bwSA": 5800,
  "bwSi": 5801,
  "bwbw": 5802,
  "bwhd": 5803,
  "bwnA": 5804,
  "bwp": 5805,
  "bxb": 5806,
  "bxnw": 5807,
  "bxt": 5808,
  "cke": 5809,
  "dAdAjw": 5810,
  "dAi": 5811,
  "dAng": 5812,
  "dAp": 5813,
  "dD": 5814,
  "dDhDw": 5815,
  "dHAj": 5816,
  "dHAwj": 5817,
  "dHAy": 5818,
  "dHaHr": 5819,
  "dHaa": 5820,
  "dHrjw": 5821,
  "dHt": 5822,
  "dSA": 5823,
  "dSrr": 5824,
  "da": 5825,
  "daq": 5826,
  "dbd": 5827,
  "dbdj": 5828,
  "dbjw": 5829,
  "dbtj": 5830,
  "dbxw": 5831,
  "ddn": 5832,
  "ddy": 5833,
  "df": 5834,
  "dfD": 5835,
  "dfn": 5836,
  "dgAiw": 5837,
  "dgAj": 5838,
  "dgAsA": 5839,
  "dgAsAj": 5840,
  "dgAys": 5841,
  "dgS": 5842,
  "dgg": 5843,
  "dhr": 5844,
  "dij": 5845,
  "djb": 5846,
  "djf": 5847,
  "djn": 5848,
  "dkn": 5849,
  "dks": 5850,
  "dmAm": 5851,
  "dmdj": 5852,
  "dmdm": 5853,
  "dmjr": 5854,
  "dmm": 5855,
  "dmr": 5856,
  "dmt": 5857,
  "dmw": 5858,
  "dnD": 5859,
  "dnb": 5860,
  "dndw": 5861,
  "dnjt": 5862,
  "dnp": 5863,
  "dnxnx": 5864,
  "dpwHw": 5865,
  "dpx": 5866,
  "dqa": 5867,
  "dqq": 5868,
  "drgy": 5869,
  "dri": 5870,
  "drt": 5871,
  "drw": 5872,
  "dryS": 5873,
  "duj": 5874,
  "duw": 5875,
  "dwAww": 5876,
  "dwdw": 5877,
  "dwr": 5878,
  "dxj": 5879,
  "dyhAqAtw": 5880,
  "fAg": 5881,
  "fAk": 5882,
  "fD": 5883,
  "fdk": 5884,
  "fdqdq": 5885,
  "fdtj": 5886,
  "fi": 5887,
  "fjw": 5888,
  "fkk": 5889,
  "fkw": 5890,
  "fky": 5891,
  "fm": 5892,
  "fndy": 5893,
  "fnf": 5894,
  "fngA": 5895,
  "fnwd": 5896,
  "fnwt": 5897,
  "fsw": 5898,
  "ftj": 5899,
  "fwt": 5900,
  "fyfy": 5901,
  "fyt": 5902,
  "gAHsy": 5903,
  "gAHw": 5904,
  "gATA": 5905,
  "gAbgAb": 5906,
  "gAbgAy": 5907,
  "gAbsbs": 5908,
  "gAg": 5909,
  "gAgAwj": 5910,
  "gAsf": 5911,
  "gAwA": 5912,
  "gAygA": 5913,
  "gDfD": 5914,
  "gT": 5915,
  "gaga": 5916,
  "gah": 5917,
  "gbbtw": 5918,
  "gbd": 5919,
  "gbj": 5920,
  "ggA": 5921,
  "ggwi": 5922,
  "gmHj": 5923,
  "gmHw": 5924,
  "gmw": 5925,
  "gnA": 5926,
  "gnHs": 5927,
  "gnb": 5928,
  "gnm": 5929,
  "gnnw": 5930,
  "gnwty": 5931,
  "grD": 5932,
  "grS": 5933,
  "grgj": 5934,
  "grm": 5935,
  "grp": 5936,
  "grpt": 5937,
  "grr": 5938,
  "gry": 5939,
  "gsj": 5940,
  "gsmt": 5941,
  "gsp": 5942,
  "gspw": 5943,
  "gwT": 5944,
  "hAbhAb": 5945,
  "hAbn": 5946,
  "hAbw": 5947,
  "hAdm": 5948,
  "hAdy": 5949,
  "hAkjr": 5950,
  "hAmty": 5951,
  "hAmw": 5952,
  "hAnhA": 5953,
  "hAnn": 5954,
  "hAq": 5955,
  "hAqAhAgA": 5956,
  "hArpw": 5957,
  "hArpwy": 5958,
  "hAru": 5959,
  "hAtt": 5960,
  "hAwt": 5961,
  "hAwv": 5962,
  "hAwy": 5963,
  "hAyn": 5964,
  "hTi": 5965,
  "hTt": 5966,
  "ha": 5967,
  "hapj": 5968,
  "hapy": 5969,
  "hbAq": 5970,
  "hbAy": 5971,
  "hbnn": 5972,
  "hbt": 5973,
  "hbwt": 5974,
  "hdd": 5975,
  "hdp": 5976,
  "hftj": 5977,
  "hjj": 5978,
  "hjms": 5979,
  "hjn": 5980,
  "hkA": 5981,
  "hkj": 5982,
  "hkr": 5983,
  "hmAA": 5984,
  "hmsq": 5985,
  "hmy": 5986,
  "hnA": 5987,
  "hnh": 5988,
  "hnjt": 5989,
  "hnm": 5990,
  "hnt": 5991,
  "hnwy": 5992,
  "hpA": 5993,
  "hpnw": 5994,
  "hqs": 5995,
  "hrA": 5996,
  "hrTT": 5997,
  "hrj": 5998,
  "hrrm": 5999,
  "hrt": 6000,
  "hrti": 6001,
  "hsh": 6002,
  "hsmq": 6003,
  "hstkt": 6004,
  "htp": 6005,
  "httj": 6006,
  "htw": 6007,
  "hwTn": 6008,
  "hwakt": 6009,
  "hwhy": 6010,
  "hwr": 6011,
  "hyn": 6012,
  "iATw": 6013,
  "iAbi": 6014,
  "iAds": 6015,
  "iAdy": 6016,
  "iAm": 6017,
  "iAwi": 6018,
  "iDr": 6019,
  "iHa": 6020,
  "iHiH": 6021,
  "iHy": 6022,
  "iSd": 6023,
  "iTT": 6024,
  "iTm": 6025,
  "iapw": 6026,
  "ibib": 6027,
  "ibsqb": 6028,
  "idrm": 6029,
  "idrn": 6030,
  "ift": 6031,
  "ihA": 6032,
  "ihbw": 6033,
  "ihpy": 6034,
  "ikk": 6035,
  "ikmw": 6036,
  "iksp": 6037,
  "imAt": 6038,
  "imm": 6039,
  "imnw": 6040,
  "ims": 6041,
  "imtwy": 6042,
  "imywty": 6043,
  "inA": 6044,
  "inHrt": 6045,
  "inHti": 6046,
  "inbw": 6047,
  "inh": 6048,
  "inhA": 6049,
  "iniSn": 6050,
  "inii": 6051,
  "ininnA": 6052,
  "inmk": 6053,
  "inp": 6054,
  "inqfqf": 6055,
  "inrk": 6056,
  "ins": 6057,
  "intbs": 6058,
  "inxrtw": 6059,
  "iq": 6060,
  "iqnr": 6061,
  "iqrw": 6062,
  "irA": 6063,
  "irir": 6064,
  "irkt": 6065,
  "irn": 6066,
  "irny": 6067,
  "irtyw": 6068,
  "irwAT": 6069,
  "irwt": 6070,
  "isdyrktjw": 6071,
  "isj": 6072,
  "istn": 6073,
  "istrsk": 6074,
  "isty": 6075,
  "isxry": 6076,
  "itnw": 6077,
  "itrn": 6078,
  "itrr": 6079,
  "itrsg": 6080,
  "iwAiw": 6081,
  "iwT": 6082,
  "iwnrA": 6083,
  "iwnxwr": 6084,
  "iwpy": 6085,
  "iws": 6086,
  "iwwA": 6087,
  "ixny": 6088,
  "ixx": 6089,
  "iyA": 6090,
  "iyH": 6091,
  "iyr": 6092,
  "iyty": 6093,
  "jAHsj": 6094,
  "jATrn": 6095,
  "jAa": 6096,
  "jAbD": 6097,
  "jAby": 6098,
  "jAfAf": 6099,
  "jAhA": 6100,
  "jAhreszeit": 6101,
  "jAjrt": 6102,
  "jAmAm": 6103,
  "jAnrw": 6104,
  "jAp": 6105,
  "jArn": 6106,
  "jAsy": 6107,
  "jAtj": 6108,
  "jAtw": 6109,
  "jAxj": 6110,
  "jAxt": 6111,
  "jAxx": 6112,
  "jAyd": 6113,
  "jDi": 6114,
  "jDj": 6115,
  "jDrj": 6116,
  "jHTj": 6117,
  "jHdjy": 6118,
  "jHjj": 6119,
  "jHt": 6120,
  "jHyty": 6121,
  "jSfj": 6122,
  "jSj": 6123,
  "jSnn": 6124,
  "jSp": 6125,
  "jStA": 6126,
  "jStt": 6127,
  "jTAj": 6128,
  "jTAw": 6129,
  "jTf": 6130,
  "jTs": 6131,
  "jTwTw": 6132,
  "jaDm": 6133,
  "jaHw": 6134,
  "jaanjj": 6135,
  "jaawj": 6136,
  "jaf": 6137,
  "jarw": 6138,
  "jbAj": 6139,
  "jbHw": 6140,
  "jbSk": 6141,
  "jbhy": 6142,
  "jbpl": 6143,
  "jbs": 6144,
  "jbsqb": 6145,
  "jbt": 6146,
  "jdAm": 6147,
  "jdHw": 6148,
  "jddj": 6149,
  "jdjj": 6150,
  "jdnpl": 6151,
  "jdwt": 6152,
  "jfr": 6153,
  "jgAj": 6154,
  "jgAp": 6155,
  "jhb": 6156,
  "jhby": 6157,
  "jhhj": 6158,
  "jhmn": 6159,
  "jhmw": 6160,
  "jhpy": 6161,
  "jjr": 6162,
  "jkjjt": 6163,
  "jkjk": 6164,
  "jknS": 6165,
  "jkrT": 6166,
  "jkrjt": 6167,
  "jmAA": 6168,
  "jmAxt": 6169,
  "jmAxy": 6170,
  "jmAy": 6171,
  "jmDr": 6172,
  "jmHD": 6173,
  "jmHw": 6174,
  "jmTj": 6175,
  "jmar": 6176,
  "jmbjj": 6177,
  "jmbw": 6178,
  "jmjr": 6179,
  "jmjrrk": 6180,
  "jmjxnt": 6181,
  "jmmj": 6182,
  "jmms": 6183,
  "jmnH": 6184,
  "jmnj": 6185,
  "jmp": 6186,
  "jmskA": 6187,
  "jmtj": 6188,
  "jnHA": 6189,
  "jnHr": 6190,
  "jnbj": 6191,
  "jnby": 6192,
  "jnf": 6193,
  "jnhA": 6194,
  "jnhmnj": 6195,
  "jnit": 6196,
  "jnjn": 6197,
  "jnjwy": 6198,
  "jnki": 6199,
  "jnktt": 6200,
  "jnnm": 6201,
  "jnnw": 6202,
  "jnti": 6203,
  "jnwn": 6204,
  "jpHw": 6205,
  "jpSnn": 6206,
  "jptntj": 6207,
  "jptwt": 6208,
  "jpwy": 6209,
  "jqA": 6210,
  "jqAt": 6211,
  "jqrs": 6212,
  "jrAw": 6213,
  "jrHnn": 6214,
  "jrd": 6215,
  "jrhb": 6216,
  "jrir": 6217,
  "jrkrk": 6218,
  "jrmj": 6219,
  "jrn": 6220,
  "jrpw": 6221,
  "jrrpx": 6222,
  "jrrx": 6223,
  "jrs": 6224,
  "jrtA": 6225,
  "jrwtw": 6226,
  "jrwv": 6227,
  "jrx": 6228,
  "jryk": 6229,
  "jsA": 6230,
  "jsDd": 6231,
  "jsDn": 6232,
  "jsHmw": 6233,
  "jsS": 6234,
  "jsbA": 6235,
  "jsbj": 6236,
  "jsh": 6237,
  "jshA": 6238,
  "jshAb": 6239,
  "jsjsj": 6240,
  "jsjy": 6241,
  "jsm": 6242,
  "jsmA": 6243,
  "jsmr": 6244,
  "jspA": 6245,
  "jspw": 6246,
  "jsqA": 6247,
  "jssj": 6248,
  "jswA": 6249,
  "jsyf": 6250,
  "jtHwj": 6251,
  "jten": 6252,
  "jtf": 6253,
  "jtfA": 6254,
  "jtnw": 6255,
  "jttw": 6256,
  "jwAdj": 6257,
  "jwAj": 6258,
  "jwApT": 6259,
  "jwAy": 6260,
  "jwTw": 6261,
  "jwb": 6262,
  "jwdnb": 6263,
  "jwg": 6264,
  "jwh": 6265,
  "jwhA": 6266,
  "jwit": 6267,
  "jwkjw": 6268,
  "jwnwj": 6269,
  "jwpAt": 6270,
  "jwpT": 6271,
  "jwpj": 6272,
  "jwpy": 6273,
  "jwrj": 6274,
  "jwrr": 6275,
  "jwrrj": 6276,
  "jwsA": 6277,
  "jwsdn": 6278,
  "jwtw": 6279,
  "jxjx": 6280,
  "jxn": 6281,
  "jxnm": 6282,
  "jxrqyn": 6283,
  "jxssf": 6284,
  "jxw": 6285,
  "jyAy": 6286,
  "jyAyi": 6287,
  "jyH": 6288,
  "jyjj": 6289,
  "jzA": 6290,
  "jzs": 6291,
  "jzw": 6292,
  "jzwt": 6293,
  "kADn": 6294,
  "kASn": 6295,
  "kASy": 6296,
  "kAbA": 6297,
  "kAhA": 6298,
  "kAhAb": 6299,
  "kAhb": 6300,
  "kAhnj": 6301,
  "kAjA": 6302,
  "kAjr": 6303,
  "kAkmn": 6304,
  "kAmy": 6305,
  "kAnA": 6306,
  "kAnw": 6307,
  "kAri": 6308,
  "kAsA": 6309,
  "kAvy": 6310,
  "kAwtj": 6311,
  "kAwy": 6312,
  "kD": 6313,
  "kHb": 6314,
  "kHs": 6315,
  "kSjw": 6316,
  "kSwj": 6317,
  "kTs": 6318,
  "ka": 6319,
  "kafw": 6320,
  "kaka": 6321,
  "kbb": 6322,
  "kbkb": 6323,
  "kbn": 6324,
  "kbnw": 6325,
  "kd": 6326,
  "kdu": 6327,
  "kfAt": 6328,
  "kfAwj": 6329,
  "kff": 6330,
  "kfj": 6331,
  "kfkfA": 6332,
  "kftiw": 6333,
  "kftjw": 6334,
  "khbw": 6335,
  "kiA": 6336,
  "kjryk": 6337,
  "kjwy": 6338,
  "kki": 6339,
  "kkn": 6340,
  "kknm": 6341,
  "kkt": 6342,
  "kkwt": 6343,
  "kmAd": 6344,
  "kmnw": 6345,
  "kmrj": 6346,
  "kmtw": 6347,
  "knanw": 6348,
  "knf": 6349,
  "knk": 6350,
  "knkf": 6351,
  "knknm": 6352,
  "knpwy": 6353,
  "knwy": 6354,
  "kpA": 6355,
  "kpn": 6356,
  "kpnA": 6357,
  "krA": 6358,
  "krAStw": 6359,
  "kri": 6360,
  "krs": 6361,
  "ksA": 6362,
  "ksnDm": 6363,
  "ksy": 6364,
  "ksyk": 6365,
  "ktktj": 6366,
  "kttA": 6367,
  "ktxj": 6368,
  "kwSn": 6369,
  "kwjw": 6370,
  "kwrSgt": 6371,
  "kwy": 6372,
  "kxnt": 6373,
  "kzn": 6374,
  "mAArw": 6375,
  "mAD": 6376,
  "mASqw": 6377,
  "mAairt": 6378,
  "mAayw": 6379,
  "mAddwj": 6380,
  "mAdy": 6381,
  "mAiw": 6382,
  "mAjdy": 6383,
  "mAjs": 6384,
  "mAmw": 6385,
  "mArw": 6386,
  "mAsAhArti": 6387,
  "mAtw": 6388,
  "mAwr": 6389,
  "mAwt": 6390,
  "mAww": 6391,
  "mAwy": 6392,
  "mAxwt": 6393,
  "mAyw": 6394,
  "mAz": 6395,
  "mDAjw": 6396,
  "mDa": 6397,
  "mDri": 6398,
  "mHDm": 6399,
  "mHH": 6400,
  "mHjw": 6401,
  "mHm": 6402,
  "mHnw": 6403,
  "mHsHs": 6404,
  "mHtj": 6405,
  "mHtt": 6406,
  "mHv": 6407,
  "mHwy": 6408,
  "mSaw": 6409,
  "mSay": 6410,
  "mSkb": 6411,
  "mSkn": 6412,
  "mSrA": 6413,
  "mSw": 6414,
  "mSy": 6415,
  "mTAi": 6416,
  "mTT": 6417,
  "mTdt": 6418,
  "mTnw": 6419,
  "mTpn": 6420,
  "mTpr": 6421,
  "mXAw": 6422,
  "mXdtj": 6423,
  "mXnw": 6424,
  "mXrw": 6425,
  "maAr": 6426,
  "maDAy": 6427,
  "maHAw": 6428,
  "maSa": 6429,
  "maSr": 6430,
  "maXAw": 6431,
  "maXr": 6432,
  "madn": 6433,
  "mahAw": 6434,
  "mahn": 6435,
  "mahwj": 6436,
  "mai": 6437,
  "maiA": 6438,
  "majA": 6439,
  "makw": 6440,
  "mama": 6441,
  "mamjA": 6442,
  "manA": 6443,
  "manfw": 6444,
  "manw": 6445,
  "manxjw": 6446,
  "marj": 6447,
  "marq": 6448,
  "marsArA": 6449,
  "marwgnA": 6450,
  "mas": 6451,
  "masw": 6452,
  "mat": 6453,
  "maxf": 6454,
  "mayA": 6455,
  "mayrA": 6456,
  "mbA": 6457,
  "mbb": 6458,
  "mbj": 6459,
  "mdA": 6460,
  "mdAm": 6461,
  "mdHw": 6462,
  "mddw": 6463,
  "mdnw": 6464,
  "mdpl": 6465,
  "mdsy": 6466,
  "mg": 6467,
  "mgw": 6468,
  "mhA": 6469,
  "mhAd": 6470,
  "mhAj": 6471,
  "mhAr": 6472,
  "mhh": 6473,
  "mhrn": 6474,
  "mht": 6475,
  "mhwt": 6476,
  "mhy": 6477,
  "mib": 6478,
  "midA": 6479,
  "misy": 6480,
  "mjA": 6481,
  "mjaHa": 6482,
  "mjam": 6483,
  "mjdA": 6484,
  "mjk": 6485,
  "mjkA": 6486,
  "mjnAj": 6487,
  "mjnw": 6488,
  "mjnyw": 6489,
  "mjr": 6490,
  "mjtrw": 6491,
  "mjtt": 6492,
  "mjwH": 6493,
  "mjzt": 6494,
  "mkAH": 6495,
  "mkAtj": 6496,
  "mkHAy": 6497,
  "mkbr": 6498,
  "mkjw": 6499,
  "mkmr": 6500,
  "mkr": 6501,
  "mkt": 6502,
  "mmjt": 6503,
  "mmtj": 6504,
  "mmw": 6505,
  "mnDj": 6506,
  "mnDt": 6507,
  "mnHH": 6508,
  "mnHp": 6509,
  "mnHw": 6510,
  "mnSd": 6511,
  "mnTAm": 6512,
  "mnTHt": 6513,
  "mnbt": 6514,
  "mndf": 6515,
  "mndjdj": 6516,
  "mndm": 6517,
  "mnfr": 6518,
  "mngbt": 6519,
  "mnh": 6520,
  "mnhp": 6521,
  "mnhs": 6522,
  "mnhsi": 6523,
  "mnk": 6524,
  "mnkr": 6525,
  "mnqw": 6526,
  "mnr": 6527,
  "mnsjw": 6528,
  "mntD": 6529,
  "mntiw": 6530,
  "mntwk": 6531,
  "mntyw": 6532,
  "mnwH": 6533,
  "mnwr": 6534,
  "mnww": 6535,
  "mpsn": 6536,
  "mq": 6537,
  "mqAHA": 6538,
  "mqry": 6539,
  "mqs": 6540,
  "mrHrt": 6541,
  "mrjj": 6542,
  "mrkbt": 6543,
  "mrm": 6544,
  "mrp": 6545,
  "mrqDn": 6546,
  "mrqt": 6547,
  "mrri": 6548,
  "mrwH": 6549,
  "mrx": 6550,
  "msDm": 6551,
  "msDmw": 6552,
  "msTp": 6553,
  "msbb": 6554,
  "msdj": 6555,
  "msjn": 6556,
  "msms": 6557,
  "msnT": 6558,
  "msnb": 6559,
  "msntjw": 6560,
  "msnw": 6561,
  "mstH": 6562,
  "msti": 6563,
  "mstjw": 6564,
  "mstnw": 6565,
  "mstp": 6566,
  "mstwj": 6567,
  "mswt": 6568,
  "msyw": 6569,
  "mtAw": 6570,
  "mtDi": 6571,
  "mtH": 6572,
  "mti": 6573,
  "mtjw": 6574,
  "mtri": 6575,
  "mtrw": 6576,
  "mtt": 6577,
  "mwTnrA": 6578,
  "mwaD": 6579,
  "mwj": 6580,
  "mwsS": 6581,
  "mwty": 6582,
  "mwv": 6583,
  "mxAjw": 6584,
  "mxj": 6585,
  "mxmx": 6586,
  "mxrw": 6587,
  "mxtm": 6588,
  "mxwj": 6589,
  "myh": 6590,
  "mymy": 6591,
  "mzr": 6592,
  "nAHAj": 6593,
  "nAS": 6594,
  "nAb": 6595,
  "nAhA": 6596,
  "nAjrf": 6597,
  "nAjrrf": 6598,
  "nAmr": 6599,
  "nApAAty": 6600,
  "nAr": 6601,
  "nArf": 6602,
  "nAry": 6603,
  "nAtw": 6604,
  "nDHy": 6605,
  "nDa": 6606,
  "nDmj": 6607,
  "nDn": 6608,
  "nDry": 6609,
  "nDsj": 6610,
  "nDsw": 6611,
  "nDy": 6612,
  "nDz": 6613,
  "nHa": 6614,
  "nHbw": 6615,
  "nHnj": 6616,
  "nHrH": 6617,
  "nHt": 6618,
  "nHtA": 6619,
  "nHti": 6620,
  "nSAw": 6621,
  "nSb": 6622,
  "nSfSf": 6623,
  "nSiw": 6624,
  "nSjw": 6625,
  "nSzz": 6626,
  "nTA": 6627,
  "nTHTH": 6628,
  "nTi": 6629,
  "nTs": 6630,
  "nTstn": 6631,
  "nTx": 6632,
  "nTz": 6633,
  "nXa": 6634,
  "nXmH": 6635,
  "nXrXr": 6636,
  "nXs": 6637,
  "naAD": 6638,
  "naHr": 6639,
  "najw": 6640,
  "nara": 6641,
  "nayA": 6642,
  "naydj": 6643,
  "nbDbD": 6644,
  "nbHw": 6645,
  "nbdd": 6646,
  "nbdj": 6647,
  "nbdjw": 6648,
  "nbjw": 6649,
  "nbpl": 6650,
  "nbsbs": 6651,
  "nbtj": 6652,
  "nbty": 6653,
  "nbwi": 6654,
  "nbyt": 6655,
  "ndby": 6656,
  "ndfdf": 6657,
  "ndr": 6658,
  "ndri": 6659,
  "ndsds": 6660,
  "nfd": 6661,
  "nfnfn": 6662,
  "nfrs": 6663,
  "nfrwys": 6664,
  "nfrwysw": 6665,
  "nfrydj": 6666,
  "nfryw": 6667,
  "nfwy": 6668,
  "ngAb": 6669,
  "ngAjj": 6670,
  "ngArw": 6671,
  "ngi": 6672,
  "ngmgm": 6673,
  "ngy": 6674,
  "nhAA": 6675,
  "nhAp": 6676,
  "nhAsi": 6677,
  "nhAw": 6678,
  "nhn": 6679,
  "nhpw": 6680,
  "nhwnhw": 6681,
  "nhzj": 6682,
  "njDw": 6683,
  "njn": 6684,
  "njnkn": 6685,
  "njnkntkSr": 6686,
  "njpt": 6687,
  "njtjt": 6688,
  "njwj": 6689,
  "njwr": 6690,
  "njywbn": 6691,
  "nkAw": 6692,
  "nkftr": 6693,
  "nkj": 6694,
  "nknk": 6695,
  "nkp": 6696,
  "nktj": 6697,
  "nmA": 6698,
  "nmaw": 6699,
  "nmja": 6700,
  "nmjt": 6701,
  "nmnmy": 6702,
  "nmriw": 6703,
  "nmsy": 6704,
  "nmtA": 6705,
  "nmtAw": 6706,
  "nmtt": 6707,
  "nmy": 6708,
  "nngj": 6709,
  "nngt": 6710,
  "nnjw": 6711,
  "nnt": 6712,
  "npAt": 6713,
  "npD": 6714,
  "npd": 6715,
  "nqd": 6716,
  "nqjw": 6717,
  "nqp": 6718,
  "nqrqr": 6719,
  "nrH": 6720,
  "nry": 6721,
  "nsAA": 6722,
  "nsbi": 6723,
  "nsbw": 6724,
  "nsi": 6725,
  "nsk": 6726,
  "nsqbb": 6727,
  "nsrt": 6728,
  "nss": 6729,
  "nstnw": 6730,
  "nsty": 6731,
  "nswyt": 6732,
  "nsyw": 6733,
  "ntAj": 6734,
  "ntAsn": 6735,
  "nta": 6736,
  "ntfj": 6737,
  "ntfjw": 6738,
  "ntkrty": 6739,
  "ntm": 6740,
  "ntn": 6741,
  "ntnw": 6742,
  "ntri": 6743,
  "ntwf": 6744,
  "ntwjw": 6745,
  "ntwr": 6746,
  "ntwt": 6747,
  "nu": 6748,
  "nvr": 6749,
  "nwa": 6750,
  "nwdt": 6751,
  "nwjw": 6752,
  "nxf": 6753,
  "nxnj": 6754,
  "nxnm": 6755,
  "nxp": 6756,
  "nxrxr": 6757,
  "nxs": 6758,
  "nxta": 6759,
  "nxwf": 6760,
  "nxwj": 6761,
  "nyw": 6762,
  "nzn": 6763,
  "pAfj": 6764,
  "pAgjs": 6765,
  "pAjs": 6766,
  "pAqr": 6767,
  "pAqt": 6768,
  "pAt": 6769,
  "pAvy": 6770,
  "pAwj": 6771,
  "pAwtjw": 6772,
  "pAwytj": 6773,
  "pAxAty": 6774,
  "pDD": 6775,
  "pDtiw": 6776,
  "pDww": 6777,
  "pHn": 6778,
  "pHts": 6779,
  "pSks": 6780,
  "pSnj": 6781,
  "pTH": 6782,
  "pXX": 6783,
  "pbx": 6784,
  "pdH": 6785,
  "pdd": 6786,
  "pgz": 6787,
  "pjA": 6788,
  "pjgAw": 6789,
  "pjs": 6790,
  "plj": 6791,
  "pln": 6792,
  "plv": 6793,
  "pnA": 6794,
  "pnS": 6795,
  "pndn": 6796,
  "pninrba": 6797,
  "pnqA": 6798,
  "pntn": 6799,
  "pny": 6800,
  "ppjj": 6801,
  "pqA": 6802,
  "pqj": 6803,
  "pqpq": 6804,
  "prA": 6805,
  "prTrsw": 6806,
  "pra": 6807,
  "praA": 6808,
  "prdtxy": 6809,
  "prhq": 6810,
  "prjs": 6811,
  "prrT": 6812,
  "prtm": 6813,
  "prwx": 6814,
  "prxj": 6815,
  "psDntyw": 6816,
  "psHw": 6817,
  "psf": 6818,
  "psgA": 6819,
  "psj": 6820,
  "psjw": 6821,
  "psr": 6822,
  "psst": 6823,
  "psw": 6824,
  "ptHy": 6825,
  "ptf": 6826,
  "pth": 6827,
  "ptiay": 6828,
  "ptjrA": 6829,
  "ptry": 6830,
  "ptt": 6831,
  "ptti": 6832,
  "pttj": 6833,
  "pwaa": 6834,
  "pwpn": 6835,
  "pwtrj": 6836,
  "pxAd": 6837,
  "pxAjw": 6838,
  "pxr": 6839,
  "pxt": 6840,
  "pxy": 6841,
  "pypw": 6842,
  "pyrq": 6843,
  "pzd": 6844,
  "pzgA": 6845,
  "qAHA": 6846,
  "qAbs": 6847,
  "qAhd": 6848,
  "qAjA": 6849,
  "qAmq": 6850,
  "qAriA": 6851,
  "qAriw": 6852,
  "qAss": 6853,
  "qAwr": 6854,
  "qDH": 6855,
  "qDwD": 6856,
  "qDwr": 6857,
  "qHH": 6858,
  "qHj": 6859,
  "qaA": 6860,
  "qaHj": 6861,
  "qaHw": 6862,
  "qai": 6863,
  "qaw": 6864,
  "qbA": 6865,
  "qbaA": 6866,
  "qbjw": 6867,
  "qbwH": 6868,
  "qdby": 6869,
  "qdfA": 6870,
  "qdr": 6871,
  "qfAw": 6872,
  "qgb": 6873,
  "qhq": 6874,
  "qhwj": 6875,
  "qmAH": 6876,
  "qmHw": 6877,
  "qmjA": 6878,
  "qmq": 6879,
  "qnbt": 6880,
  "qnbw": 6881,
  "qnnA": 6882,
  "qnnj": 6883,
  "qnq": 6884,
  "qnr": 6885,
  "qnt": 6886,
  "qnyw": 6887,
  "qqA": 6888,
  "qqi": 6889,
  "qqj": 6890,
  "qrD": 6891,
  "qrHt": 6892,
  "qratm": 6893,
  "qrjA": 6894,
  "qrja": 6895,
  "qrq": 6896,
  "qrt": 6897,
  "qrw": 6898,
  "qtAj": 6899,
  "qtS": 6900,
  "qtqt": 6901,
  "qwHn": 6902,
  "qwq": 6903,
  "rAHs": 6904,
  "rAHw": 6905,
  "rAHwDAti": 6906,
  "rAjs": 6907,
  "rAsx": 6908,
  "rDjnj": 6909,
  "rHbw": 6910,
  "rHn": 6911,
  "rSA": 6912,
  "rSwy": 6913,
  "rTm": 6914,
  "rTw": 6915,
  "ram": 6916,
  "ramrskny": 6917,
  "rat": 6918,
  "rau": 6919,
  "rb": 6920,
  "rbH": 6921,
  "rbS": 6922,
  "rbgr": 6923,
  "rbi": 6924,
  "rbrt": 6925,
  "rbsnn": 6926,
  "rbty": 6927,
  "rby": 6928,
  "rdH": 6929,
  "rdwt": 6930,
  "rgs": 6931,
  "rhA": 6932,
  "rhAn": 6933,
  "rhm": 6934,
  "rhnj": 6935,
  "rhr": 6936,
  "rjd": 6937,
  "rjj": 6938,
  "rjwhA": 6939,
  "rjwy": 6940,
  "rkHy": 6941,
  "rki": 6942,
  "rksw": 6943,
  "rkt": 6944,
  "rkty": 6945,
  "rky": 6946,
  "rmAmj": 6947,
  "rmj": 6948,
  "rms": 6949,
  "rnT": 6950,
  "rnj": 6951,
  "rnmm": 6952,
  "rnnw": 6953,
  "rnptw": 6954,
  "rnpy": 6955,
  "rns": 6956,
  "rnwy": 6957,
  "rpH": 6958,
  "rpkt": 6959,
  "rprp": 6960,
  "rpt": 6961,
  "rqil": 6962,
  "rrAwj": 6963,
  "rrmw": 6964,
  "rrn": 6965,
  "rrwj": 6966,
  "rsfj": 6967,
  "rsfy": 6968,
  "rss": 6969,
  "rssj": 6970,
  "rst": 6971,
  "rtjw": 6972,
  "rtsSk": 6973,
  "rv": 6974,
  "rwDt": 6975,
  "rwSA": 6976,
  "rwSww": 6977,
  "rwh": 6978,
  "rwiA": 6979,
  "rwjj": 6980,
  "rwjw": 6981,
  "rwnA": 6982,
  "rwx": 6983,
  "rwyt": 6984,
  "rxjt": 6985,
  "rxjw": 6986,
  "rxsn": 6987,
  "rxss": 6988,
  "rxw": 6989,
  "rxyw": 6990,
  "rxz": 6991,
  "rz": 6992,
  "sAAw": 6993,
  "sAHn": 6994,
  "sAXb": 6995,
  "sAXbw": 6996,
  "sAbs": 6997,
  "sAg": 6998,
  "sAgnn": 6999,
  "sAh": 7000,
  "sAhAr": 7001,
  "sAiA": 7002,
  "sAjw": 7003,
  "sAk": 7004,
  "sAks": 7005,
  "sAmt": 7006,
  "sAmw": 7007,
  "sAnHm": 7008,
  "sApArwrw": 7009,
  "sAqA": 7010,
  "sAqty": 7011,
  "sArwiA": 7012,
  "sAsAw": 7013,
  "sAswdsy": 7014,
  "sAtj": 7015,
  "sAtw": 7016,
  "sAwy": 7017,
  "sAxAx": 7018,
  "sAxw": 7019,
  "sAyr": 7020,
  "sDAHy": 7021,
  "sDAm": 7022,
  "sDHw": 7023,
  "sDHy": 7024,
  "sDdi": 7025,
  "sDdj": 7026,
  "sDdm": 7027,
  "sDfAw": 7028,
  "sDrj": 7029,
  "sDty": 7030,
  "sDwj": 7031,
  "sDwy": 7032,
  "sHAbi": 7033,
  "sHApw": 7034,
  "sHDn": 7035,
  "sHDw": 7036,
  "sHHy": 7037,
  "sHaw": 7038,
  "sHmm": 7039,
  "sHnn": 7040,
  "sHny": 7041,
  "sHpt": 7042,
  "sHs": 7043,
  "sHwn": 7044,
  "sSAj": 7045,
  "sSAw": 7046,
  "sSa": 7047,
  "sSdAw": 7048,
  "sSjsA": 7049,
  "sSnw": 7050,
  "sSpw": 7051,
  "sSrr": 7052,
  "sSsr": 7053,
  "sSwASwA": 7054,
  "sSy": 7055,
  "sSzp": 7056,
  "sTAs": 7057,
  "sTH": 7058,
  "sTT": 7059,
  "sTnw": 7060,
  "sTsw": 7061,
  "sXa": 7062,
  "sXrd": 7063,
  "sXw": 7064,
  "saHA": 7065,
  "sagA": 7066,
  "saiw": 7067,
  "sajw": 7068,
  "sak": 7069,
  "sanxy": 7070,
  "saqw": 7071,
  "sawA": 7072,
  "sbAiw": 7073,
  "sbAqq": 7074,
  "sbHy": 7075,
  "sba": 7076,
  "sbbA": 7077,
  "sbgA": 7078,
  "sbgs": 7079,
  "sbhA": 7080,
  "sbjk": 7081,
  "sbky": 7082,
  "sbqj": 7083,
  "sbqw": 7084,
  "sbtiw": 7085,
  "sbtty": 7086,
  "sbxbx": 7087,
  "sbxn": 7088,
  "sdS": 7089,
  "sdSr": 7090,
  "sdbw": 7091,
  "sdg": 7092,
  "sdi": 7093,
  "sdp": 7094,
  "sdt": 7095,
  "sdw": 7096,
  "sed": 7097,
  "sfD": 7098,
  "sfnA": 7099,
  "sfnw": 7100,
  "sfrnfr": 7101,
  "sgAbw": 7102,
  "sgAgA": 7103,
  "sgAy": 7104,
  "sgbyn": 7105,
  "sgdy": 7106,
  "sgg": 7107,
  "sgm": 7108,
  "sgmH": 7109,
  "sgn": 7110,
  "sgrA": 7111,
  "sgrT": 7112,
  "sgrj": 7113,
  "shAw": 7114,
  "shbu": 7115,
  "shd": 7116,
  "shp": 7117,
  "shrw": 7118,
  "shtht": 7119,
  "sibyn": 7120,
  "sif": 7121,
  "sisi": 7122,
  "sjAd": 7123,
  "sjAdi": 7124,
  "sjTn": 7125,
  "sjbA": 7126,
  "sjdd": 7127,
  "sjf": 7128,
  "sjmA": 7129,
  "sjnd": 7130,
  "sjnj": 7131,
  "sjnn": 7132,
  "sjnw": 7133,
  "sjpy": 7134,
  "sjrAtj": 7135,
  "sjwj": 7136,
  "sjzy": 7137,
  "skmkm": 7138,
  "skmy": 7139,
  "skp": 7140,
  "skrj": 7141,
  "sks": 7142,
  "sksky": 7143,
  "smAA": 7144,
  "smAaw": 7145,
  "smAmA": 7146,
  "smHw": 7147,
  "smSrw": 7148,
  "smdt": 7149,
  "smgw": 7150,
  "smk": 7151,
  "smnj": 7152,
  "smntw": 7153,
  "smnw": 7154,
  "smry": 7155,
  "smsr": 7156,
  "smty": 7157,
  "smz": 7158,
  "snDADAw": 7159,
  "snDt": 7160,
  "snHmy": 7161,
  "sna": 7162,
  "sndt": 7163,
  "sndtj": 7164,
  "snhj": 7165,
  "snhprgn": 7166,
  "snhzy": 7167,
  "snjk": 7168,
  "snjnj": 7169,
  "snkn": 7170,
  "snnwt": 7171,
  "snpw": 7172,
  "snri": 7173,
  "snrjw": 7174,
  "snsw": 7175,
  "sntmtm": 7176,
  "snty": 7177,
  "snwH": 7178,
  "snwr": 7179,
  "snxi": 7180,
  "snyj": 7181,
  "snz": 7182,
  "spAi": 7183,
  "spAt": 7184,
  "spAwt": 7185,
  "spnj": 7186,
  "sqAHA": 7187,
  "sqAs": 7188,
  "sqAy": 7189,
  "sqHA": 7190,
  "sqdw": 7191,
  "sqdy": 7192,
  "sqj": 7193,
  "sqjj": 7194,
  "sqnq": 7195,
  "sqq": 7196,
  "sqqt": 7197,
  "sqrqr": 7198,
  "sqsn": 7199,
  "srH": 7200,
  "srS": 7201,
  "srdm": 7202,
  "srfy": 7203,
  "srit": 7204,
  "srmi": 7205,
  "srn": 7206,
  "srnw": 7207,
  "srrT": 7208,
  "srsw": 7209,
  "srti": 7210,
  "srwy": 7211,
  "ssAty": 7212,
  "ssbi": 7213,
  "ssbt": 7214,
  "ssim": 7215,
  "ssjw": 7216,
  "ssmt": 7217,
  "ssnD": 7218,
  "sssw": 7219,
  "ssxm": 7220,
  "stAH": 7221,
  "stH": 7222,
  "stXy": 7223,
  "stfy": 7224,
  "sthb": 7225,
  "stjHn": 7226,
  "stjS": 7227,
  "stjmw": 7228,
  "stnb": 7229,
  "stnj": 7230,
  "stnwy": 7231,
  "strj": 7232,
  "strti": 7233,
  "swAA": 7234,
  "swASj": 7235,
  "swAwA": 7236,
  "swDb": 7237,
  "swSA": 7238,
  "swa": 7239,
  "swai": 7240,
  "swbb": 7241,
  "swbn": 7242,
  "swbx": 7243,
  "swdn": 7244,
  "swg": 7245,
  "swgm": 7246,
  "swgs": 7247,
  "swhAw": 7248,
  "swhj": 7249,
  "swiA": 7250,
  "swjw": 7251,
  "swk": 7252,
  "swmyn": 7253,
  "swni": 7254,
  "swnnw": 7255,
  "swnswn": 7256,
  "swpl": 7257,
  "swqj": 7258,
  "swrtk": 7259,
  "swrx": 7260,
  "sws": 7261,
  "swtA": 7262,
  "swtS": 7263,
  "swti": 7264,
  "swu": 7265,
  "swx": 7266,
  "swxAx": 7267,
  "swywy": 7268,
  "sxAs": 7269,
  "sxAxj": 7270,
  "sxaa": 7271,
  "sxann": 7272,
  "sxar": 7273,
  "sxdi": 7274,
  "sxdy": 7275,
  "sxf": 7276,
  "sxmy": 7277,
  "sxnS": 7278,
  "sxnjw": 7279,
  "sxntjw": 7280,
  "sxntt": 7281,
  "sxpp": 7282,
  "sxra": 7283,
  "sxrp": 7284,
  "sxry": 7285,
  "sxsw": 7286,
  "sxtj": 7287,
  "sxtyw": 7288,
  "sxwnw": 7289,
  "sxws": 7290,
  "sxwsj": 7291,
  "sxwt": 7292,
  "sxxts": 7293,
  "sxz": 7294,
  "sytw": 7295,
  "syw": 7296,
  "tAdu": 7297,
  "tAm": 7298,
  "tAn": 7299,
  "tAnn": 7300,
  "tAry": 7301,
  "tAsw": 7302,
  "tAtmw": 7303,
  "tAwj": 7304,
  "tAytj": 7305,
  "tHt": 7306,
  "tSf": 7307,
  "tSjA": 7308,
  "tSr": 7309,
  "tSw": 7310,
  "tTj": 7311,
  "tX": 7312,
  "tXs": 7313,
  "ta": 7314,
  "tbH": 7315,
  "tbX": 7316,
  "tbh": 7317,
  "tbhA": 7318,
  "tbi": 7319,
  "tbjn": 7320,
  "tbnti": 7321,
  "tbt": 7322,
  "tbwn": 7323,
  "tesub": 7324,
  "tfAj": 7325,
  "tff": 7326,
  "tfjw": 7327,
  "tfnt": 7328,
  "tfpt": 7329,
  "tfrr": 7330,
  "tftf": 7331,
  "thwh": 7332,
  "tiHsw": 7333,
  "tikt": 7334,
  "tili": 7335,
  "tinntw": 7336,
  "tisw": 7337,
  "tity": 7338,
  "tiwni": 7339,
  "tjHA": 7340,
  "tjHw": 7341,
  "tjHwt": 7342,
  "tjS": 7343,
  "tjSps": 7344,
  "tjaAm": 7345,
  "tjd": 7346,
  "tjdwj": 7347,
  "tjkSr": 7348,
  "tjkj": 7349,
  "tjmA": 7350,
  "tjmHy": 7351,
  "tjmwt": 7352,
  "tjmy": 7353,
  "tjn": 7354,
  "tjnH": 7355,
  "tjnrw": 7356,
  "tjntjn": 7357,
  "tjttjt": 7358,
  "tjtwy": 7359,
  "tjwn": 7360,
  "tjwnj": 7361,
  "tjwr": 7362,
  "tjwrj": 7363,
  "tjypl": 7364,
  "tkkw": 7365,
  "tkr": 7366,
  "tkt": 7367,
  "tmAa": 7368,
  "tmAw": 7369,
  "tmHn": 7370,
  "tmS": 7371,
  "tmj": 7372,
  "tmmw": 7373,
  "tmpsy": 7374,
  "tmwt": 7375,
  "tnA": 7376,
  "tnbwX": 7377,
  "tnhA": 7378,
  "tnpl": 7379,
  "tns": 7380,
  "tntn": 7381,
  "tnwy": 7382,
  "tpn": 7383,
  "tpt": 7384,
  "tpwiA": 7385,
  "tpyw": 7386,
  "tqny": 7387,
  "tra": 7388,
  "triA": 7389,
  "trmg": 7390,
  "trq": 7391,
  "trrk": 7392,
  "ts": 7393,
  "tsm": 7394,
  "tsn": 7395,
  "ttr": 7396,
  "ttrkiA": 7397,
  "ttt": 7398,
  "tu": 7399,
  "twAhA": 7400,
  "twHw": 7401,
  "twbn": 7402,
  "twbx": 7403,
  "twg": 7404,
  "twhr": 7405,
  "twpl": 7406,
  "twtwiA": 7407,
  "tww": 7408,
  "twx": 7409,
  "txbw": 7410,
  "txf": 7411,
  "txnj": 7412,
  "txsj": 7413,
  "txt": 7414,
  "tyr": 7415,
  "tyty": 7416,
  "tywt": 7417,
  "tzm": 7418,
  "ui": 7419,
  "vw": 7420,
  "wADAD": 7421,
  "wADH": 7422,
  "wADi": 7423,
  "wAHw": 7424,
  "wATA": 7425,
  "wAbwy": 7426,
  "wAh": 7427,
  "wAhr": 7428,
  "wAjT": 7429,
  "wAp": 7430,
  "wArx": 7431,
  "wAsjr": 7432,
  "wAtmAm": 7433,
  "wAwAj": 7434,
  "wAwt": 7435,
  "wAxx": 7436,
  "wAyrn": 7437,
  "wDAA": 7438,
  "wDAi": 7439,
  "wDApw": 7440,
  "wDAy": 7441,
  "wDd": 7442,
  "wDnw": 7443,
  "wDr": 7444,
  "wHay": 7445,
  "wHd": 7446,
  "wHf": 7447,
  "wHmj": 7448,
  "wHmm": 7449,
  "wHn": 7450,
  "wSbwj": 7451,
  "wStiht": 7452,
  "wSw": 7453,
  "wTnt": 7454,
  "wTsA": 7455,
  "waAwj": 7456,
  "waaw": 7457,
  "wara": 7458,
  "ware": 7459,
  "waty": 7460,
  "wawf": 7461,
  "wbAw": 7462,
  "wbb": 7463,
  "wbg": 7464,
  "wbnn": 7465,
  "wbny": 7466,
  "wbw": 7467,
  "wdA": 7468,
  "wdfj": 7469,
  "wdns": 7470,
  "wdy": 7471,
  "wfAw": 7472,
  "wfj": 7473,
  "wfjH": 7474,
  "wft": 7475,
  "wgAj": 7476,
  "wgAp": 7477,
  "wgAsw": 7478,
  "wgAw": 7479,
  "whAb": 7480,
  "whAjw": 7481,
  "whAnj": 7482,
  "whAy": 7483,
  "whh": 7484,
  "whj": 7485,
  "whr": 7486,
  "wiAs": 7487,
  "win": 7488,
  "wjAn": 7489,
  "wjAw": 7490,
  "wjT": 7491,
  "wjdu": 7492,
  "wjs": 7493,
  "wjsj": 7494,
  "wjt": 7495,
  "wjv": 7496,
  "wk": 7497,
  "wkw": 7498,
  "wmnj": 7499,
  "wmtj": 7500,
  "wnDj": 7501,
  "wnDr": 7502,
  "wnDwj": 7503,
  "wnH": 7504,
  "wnSjw": 7505,
  "wnSw": 7506,
  "wna": 7507,
  "wnis": 7508,
  "wnnt": 7509,
  "wnny": 7510,
  "wnpp": 7511,
  "wnrn": 7512,
  "wnyw": 7513,
  "wnz": 7514,
  "wnzj": 7515,
  "wrSS": 7516,
  "wrSw": 7517,
  "wrSww": 7518,
  "wrTt": 7519,
  "wra": 7520,
  "wrk": 7521,
  "wrktr": 7522,
  "wrmr": 7523,
  "wrn": 7524,
  "wrrw": 7525,
  "wrww": 7526,
  "wsA": 7527,
  "wsaA": 7528,
  "wsfi": 7529,
  "wsh": 7530,
  "wskw": 7531,
  "wsn": 7532,
  "wsrw": 7533,
  "wstirkni": 7534,
  "wtTw": 7535,
  "wtjjA": 7536,
  "wtmt": 7537,
  "wtmtm": 7538,
  "wtnt": 7539,
  "wtnty": 7540,
  "wtywt": 7541,
  "wvi": 7542,
  "wwj": 7543,
  "wwt": 7544,
  "wwtj": 7545,
  "www": 7546,
  "wwy": 7547,
  "wxAS": 7548,
  "wxAr": 7549,
  "wxAxj": 7550,
  "wxn": 7551,
  "wypl": 7552,
  "wyw": 7553,
  "xASA": 7554,
  "xAaa": 7555,
  "xAbA": 7556,
  "xAbAy": 7557,
  "xAf": 7558,
  "xAp": 7559,
  "xApl": 7560,
  "xArj": 7561,
  "xAst": 7562,
  "xAswt": 7563,
  "xAtw": 7564,
  "xAwi": 7565,
  "xAySb": 7566,
  "xAytj": 7567,
  "xD": 7568,
  "xDw": 7569,
  "xSxS": 7570,
  "xTn": 7571,
  "xabi": 7572,
  "xax": 7573,
  "xbAy": 7574,
  "xbbj": 7575,
  "xbsy": 7576,
  "xby": 7577,
  "xdbw": 7578,
  "xdd": 7579,
  "xdm": 7580,
  "xdp": 7581,
  "xdxd": 7582,
  "xdy": 7583,
  "xfAA": 7584,
  "xfaw": 7585,
  "xftt": 7586,
  "xftw": 7587,
  "xfx": 7588,
  "xiswn": 7589,
  "xjw": 7590,
  "xkr": 7591,
  "xmAA": 7592,
  "xmT": 7593,
  "xmai": 7594,
  "xmmj": 7595,
  "xmr": 7596,
  "xnDr": 7597,
  "xnSw": 7598,
  "xnT": 7599,
  "xndS": 7600,
  "xniw": 7601,
  "xnjt": 7602,
  "xnmt": 7603,
  "xnmy": 7604,
  "xnrD": 7605,
  "xnrT": 7606,
  "xnrf": 7607,
  "xnrty": 7608,
  "xnsy": 7609,
  "xntjw": 7610,
  "xnww": 7611,
  "xnxn": 7612,
  "xpSj": 7613,
  "xpSy": 7614,
  "xpTt": 7615,
  "xpnj": 7616,
  "xpnn": 7617,
  "xpnpn": 7618,
  "xpnw": 7619,
  "xppw": 7620,
  "xptT": 7621,
  "xpw": 7622,
  "xpxp": 7623,
  "xrnt": 7624,
  "xrpw": 7625,
  "xrq": 7626,
  "xrs": 7627,
  "xrsH": 7628,
  "xrstj": 7629,
  "xrtip": 7630,
  "xrww": 7631,
  "xsDD": 7632,
  "xsb": 7633,
  "xsff": 7634,
  "xsft": 7635,
  "xssp": 7636,
  "xswD": 7637,
  "xtAsAr": 7638,
  "xtn": 7639,
  "xtp": 7640,
  "xtr": 7641,
  "xwAsn": 7642,
  "xwD": 7643,
  "xwjt": 7644,
  "xwz": 7645,
  "xwzw": 7646,
  "xxj": 7647,
  "xzA": 7648,
  "yAd": 7649,
  "yAkb": 7650,
  "yH": 7651,
  "yHA": 7652,
  "yab": 7653,
  "yan": 7654,
  "ybHy": 7655,
  "yda": 7656,
  "ydu": 7657,
  "ygdy": 7658,
  "yhy": 7659,
  "yks": 7660,
  "ymm": 7661,
  "ynDm": 7662,
  "ynam": 7663,
  "ynktwn": 7664,
  "ynq": 7665,
  "ynw": 7666,
  "ypgdd": 7667,
  "yptH": 7668,
  "ypwy": 7669,
  "yrA": 7670,
  "yrdn": 7671,
  "yrqy": 7672,
  "ys": 7673,
  "ytwt": 7674,
  "ytx": 7675,
  "ywA": 7676,
  "ywj": 7677,
  "ywn": 7678,
  "zAAw": 7679,
  "zAhr": 7680,
  "zAj": 7681,
  "zAtA": 7682,
  "zAwt": 7683,
  "zHj": 7684,
  "zHy": 7685,
  "zSA": 7686,
  "zSpl": 7687,
  "zSr": 7688,
  "zSw": 7689,
  "zSzSt": 7690,
  "zTA": 7691,
  "zTtt": 7692,
  "zTw": 7693,
  "zaH": 7694,
  "zanx": 7695,
  "zbnw": 7696,
  "zbzb": 7697,
  "zfnw": 7698,
  "zhAi": 7699,
  "zjw": 7700,
  "zjzj": 7701,
  "zkrj": 7702,
  "zmAi": 7703,
  "zmT": 7704,
  "zmi": 7705,
  "zmr": 7706,
  "zmzrj": 7707,
  "znaa": 7708,
  "znh": 7709,
  "znk": 7710,
  "znnw": 7711,
  "znt": 7712,
  "znzn": 7713,
  "zpy": 7714,
  "zqAi": 7715,
  "zrjw": 7716,
  "zrwx": 7717,
  "ztp": 7718,
  "ztt": 7719,
  "zwS": 7720,
  "zwf": 7721,
  "zwj": 7722,
  "zwnj": 7723,
  "zxm": 7724,
  "zxnn": 7725,
  "zzi": 7726
}